{
  "version": "1.0",
  "truncation": null,
  "padding": null,
  "added_tokens": [
    {
      "id": 0,
      "content": "[PAD]",
      "single_word": false,
      "lstrip": false,
      "rstrip": false,
      "normalized": false,
      "special": true
    },
    {
      "id": 1,
      "content": "[CLS]",
      "single_word": false,
      "lstrip": false,
      "rstrip": false,
      "normalized": false,
      "special": true
    },
    {
      "id": 2,
      "content": "[SEP]",
      "single_word": false,
      "lstrip": false,
      "rstrip": false,
      "normalized": false,
      "special": true
    },
    {
      "id": 3,
      "content": "[UNK]",
      "single_word": false,
      "lstrip": false,
      "rstrip": false,
      "normalized": false,
      "special": true
    },
    {
      "id": 64000,
      "content": "[MASK]",
      "single_word": false,
      "lstrip": false,
      "rstrip": false,
      "normalized": false,
      "special": true
    }
  ],
  "normalizer": {
    "type": "BertNormalizer",
    "clean_text": true,
    "handle_chinese_chars": true,
    "strip_accents": null,
    "lowercase": false
  },
  "pre_tokenizer": {
    "type": "BertPreTokenizer"
  },
  "post_processor": {
    "type": "TemplateProcessing",
    "single": [
      { "SpecialToken": { "id": "[CLS]", "type_id": 0 } },
      { "Sequence": { "id": "A", "type_id": 0 } },
      { "SpecialToken": { "id": "[SEP]", "type_id": 0 } }
    ],
    "pair": [
      { "SpecialToken": { "id": "[CLS]", "type_id": 0 } },
      { "Sequence": { "id": "A", "type_id": 0 } },
      { "SpecialToken": { "id": "[SEP]", "type_id": 0 } },
      { "Sequence": { "id": "B", "type_id": 0 } },
      { "SpecialToken": { "id": "[SEP]", "type_id": 0 } }
    ],
    "special_tokens": {
      "[CLS]": { "id": "[CLS]", "ids": [1], "tokens": ["[CLS]"] },
      "[SEP]": { "id": "[SEP]", "ids": [2], "tokens": ["[SEP]"] }
    }
  },
  "decoder": {
    "type": "WordPiece",
    "prefix": "##",
    "cleanup": true
  },
  "model": {
    "type": "WordPiece",
    "unk_token": "[UNK]",
    "continuing_subword_prefix": "##",
    "max_input_chars_per_word": 100,
    "vocab": {
      "[PAD]": 0,
      "[CLS]": 1,
      "[SEP]": 2,
      "[UNK]": 3,
      "<0x00>": 4,
      "<0x01>": 5,
      "<0x02>": 6,
      "<0x03>": 7,
      "<0x04>": 8,
      "<0x05>": 9,
      "<0x06>": 10,
      "<0x07>": 11,
      "<0x08>": 12,
      "<0x09>": 13,
      "<0x0A>": 14,
      "<0x0B>": 15,
      "<0x0C>": 16,
      "<0x0D>": 17,
      "<0x0E>": 18,
      "<0x0F>": 19,
      "<0x10>": 20,
      "<0x11>": 21,
      "<0x12>": 22,
      "<0x13>": 23,
      "<0x14>": 24,
      "<0x15>": 25,
      "<0x16>": 26,
      "<0x17>": 27,
      "<0x18>": 28,
      "<0x19>": 29,
      "<0x1A>": 30,
      "<0x1B>": 31,
      "<0x1C>": 32,
      "<0x1D>": 33,
      "<0x1E>": 34,
      "<0x1F>": 35,
      "<0x20>": 36,
      "<0x21>": 37,
      "<0x22>": 38,
      "<0x23>": 39,
      "<0x24>": 40,
      "<0x25>": 41,
      "<0x26>": 42,
      "<0x27>": 43,
      "<0x28>": 44,
      "<0x29>": 45,
      "<0x2A>": 46,
      "<0x2B>": 47,
      "<0x2C>": 48,
      "<0x2D>": 49,
      "<0x2E>": 50,
      "<0x2F>": 51,
      "<0x30>": 52,
      "<0x31>": 53,
      "<0x32>": 54,
      "<0x33>": 55,
      "<0x34>": 56,
      "<0x35>": 57,
      "<0x36>": 58,
      "<0x37>": 59,
      "<0x38>": 60,
      "<0x39>": 61,
      "<0x3A>": 62,
      "<0x3B>": 63,
      "<0x3C>": 64,
      "<0x3D>": 65,
      "<0x3E>": 66,
      "<0x3F>": 67,
      "<0x40>": 68,
      "<0x41>": 69,
      "<0x42>": 70,
      "<0x43>": 71,
      "<0x44>": 72,
      "<0x45>": 73,
      "<0x46>": 74,
      "<0x47>": 75,
      "<0x48>": 76,
      "<0x49>": 77,
      "<0x4A>": 78,
      "<0x4B>": 79,
      "<0x4C>": 80,
      "<0x4D>": 81,
      "<0x4E>": 82,
      "<0x4F>": 83,
      "<0x50>": 84,
      "<0x51>": 85,
      "<0x52>": 86,
      "<0x53>": 87,
      "<0x54>": 88,
      "<0x55>": 89,
      "<0x56>": 90,
      "<0x57>": 91,
      "<0x58>": 92,
      "<0x59>": 93,
      "<0x5A>": 94,
      "<0x5B>": 95,
      "<0x5C>": 96,
      "<0x5D>": 97,
      "<0x5E>": 98,
      "<0x5F>": 99,
      "<0x60>": 100,
      "<0x61>": 101,
      "<0x62>": 102,
      "<0x63>": 103,
      "<0x64>": 104,
      "<0x65>": 105,
      "<0x66>": 106,
      "<0x67>": 107,
      "<0x68>": 108,
      "<0x69>": 109,
      "<0x6A>": 110,
      "<0x6B>": 111,
      "<0x6C>": 112,
      "<0x6D>": 113,
      "<0x6E>": 114,
      "<0x6F>": 115,
      "<0x70>": 116,
      "<0x71>": 117,
      "<0x72>": 118,
      "<0x73>": 119,
      "<0x74>": 120,
      "<0x75>": 121,
      "<0x76>": 122,
      "<0x77>": 123,
      "<0x78>": 124,
      "<0x79>": 125,
      "<0x7A>": 126,
      "<0x7B>": 127,
      "<0x7C>": 128,
      "<0x7D>": 129,
      "<0x7E>": 130,
      "<0x7F>": 131,
      "<0x80>": 132,
      "<0x81>": 133,
      "<0x82>": 134,
      "<0x83>": 135,
      "<0x84>": 136,
      "<0x85>": 137,
      "<0x86>": 138,
      "<0x87>": 139,
      "<0x88>": 140,
      "<0x89>": 141,
      "<0x8A>": 142,
      "<0x8B>": 143,
      "<0x8C>": 144,
      "<0x8D>": 145,
      "<0x8E>": 146,
      "<0x8F>": 147,
      "<0x90>": 148,
      "<0x91>": 149,
      "<0x92>": 150,
      "<0x93>": 151,
      "<0x94>": 152,
      "<0x95>": 153,
      "<0x96>": 154,
      "<0x97>": 155,
      "<0x98>": 156,
      "<0x99>": 157,
      "<0x9A>": 158,
      "<0x9B>": 159,
      "<0x9C>": 160,
      "<0x9D>": 161,
      "<0x9E>": 162,
      "<0x9F>": 163,
      "<0xA0>": 164,
      "<0xA1>": 165,
      "<0xA2>": 166,
      "<0xA3>": 167,
      "<0xA4>": 168,
      "<0xA5>": 169,
      "<0xA6>": 170,
      "<0xA7>": 171,
      "<0xA8>": 172,
      "<0xA9>": 173,
      "<0xAA>": 174,
      "<0xAB>": 175,
      "<0xAC>": 176,
      "<0xAD>": 177,
      "<0xAE>": 178,
      "<0xAF>": 179,
      "<0xB0>": 180,
      "<0xB1>": 181,
      "<0xB2>": 182,
      "<0xB3>": 183,
      "<0xB4>": 184,
      "<0xB5>": 185,
      "<0xB6>": 186,
      "<0xB7>": 187,
      "<0xB8>": 188,
      "<0xB9>": 189,
      "<0xBA>": 190,
      "<0xBB>": 191,
      "<0xBC>": 192,
      "<0xBD>": 193,
      "<0xBE>": 194,
      "<0xBF>": 195,
      "<0xC0>": 196,
      "<0xC1>": 197,
      "<0xC2>": 198,
      "<0xC3>": 199,
      "<0xC4>": 200,
      "<0xC5>": 201,
      "<0xC6>": 202,
      "<0xC7>": 203,
      "<0xC8>": 204,
      "<0xC9>": 205,
      "<0xCA>": 206,
      "<0xCB>": 207,
      "<0xCC>": 208,
      "<0xCD>": 209,
      "<0xCE>": 210,
      "<0xCF>": 211,
      "<0xD0>": 212,
      "<0xD1>": 213,
      "<0xD2>": 214,
      "<0xD3>": 215,
      "<0xD4>": 216,
      "<0xD5>": 217,
      "<0xD6>": 218,
      "<0xD7>": 219,
      "<0xD8>": 220,
      "<0xD9>": 221,
      "<0xDA>": 222,
      "<0xDB>": 223,
      "<0xDC>": 224,
      "<0xDD>": 225,
      "<0xDE>": 226,
      "<0xDF>": 227,
      "<0xE0>": 228,
      "<0xE1>": 229,
      "<0xE2>": 230,
      "<0xE3>": 231,
      "<0xE4>": 232,
      "<0xE5>": 233,
      "<0xE6>": 234,
      "<0xE7>": 235,
      "<0xE8>": 236,
      "<0xE9>": 237,
      "<0xEA>": 238,
      "<0xEB>": 239,
      "<0xEC>": 240,
      "<0xED>": 241,
      "<0xEE>": 242,
      "<0xEF>": 243,
      "<0xF0>": 244,
      "<0xF1>": 245,
      "<0xF2>": 246,
      "<0xF3>": 247,
      "<0xF4>": 248,
      "<0xF5>": 249,
      "<0xF6>": 250,
      "<0xF7>": 251,
      "<0xF8>": 252,
      "<0xF9>": 253,
      "<0xFA>": 254,
      "<0xFB>": 255,
      "<0xFC>": 256,
      "<0xFD>": 257,
      "<0xFE>": 258,
      "<0xFF>": 259,
      "!": 260,
      "\"": 261,
      "#": 262,
      "$": 263,
      "%": 264,
      "&": 265,
      "'": 266,
      "(": 267,
      ")": 268,
      "*": 269,
      "+": 270,
      ",": 271,
      "-": 272,
      ".": 273,
      "/": 274,
      "0": 275,
      "1": 276,
      "2": 277,
      "3": 278,
      "4": 279,
      "5": 280,
      "6": 281,
      "7": 282,
      "8": 283,
      "9": 284,
      ":": 285,
      ";": 286,
      "<": 287,
      "=": 288,
      ">": 289,
      "?": 290,
      "@": 291,
      "A": 292,
      "B": 293,
      "C": 294,
      "D": 295,
      "E": 296,
      "F": 297,
      "G": 298,
      "H": 299,
      "I": 300,
      "J": 301,
      "K": 302,
      "L": 303,
      "M": 304,
      "N": 305,
      "O": 306,
      "P": 307,
      "Q": 308,
      "R": 309,
      "S": 310,
      "T": 311,
      "U": 312,
      "V": 313,
      "W": 314,
      "X": 315,
      "Y": 316,
      "Z": 317,
      "[": 318,
      "\\": 319,
      "]": 320,
      "^": 321,
      "_": 322,
      "`": 323,
      "a": 324,
      "b": 325,
      "c": 326,
      "d": 327,
      "e": 328,
      "f": 329,
      "g": 330,
      "h": 331,
      "i": 332,
      "j": 333,
      "k": 334,
      "l": 335,
      "m": 336,
      "n": 337,
      "o": 338,
      "p": 339,
      "q": 340,
      "r": 341,
      "s": 342,
      "t": 343,
      "u": 344,
      "v": 345,
      "w": 346,
      "x": 347,
      "y": 348,
      "z": 349,
      "{": 350,
      "|": 351,
      "}": 352,
      "~": 353,
      "£": 354,
      "¥": 355,
      "§": 356,
      "©": 357,
      "«": 358,
      "®": 359,
      "¯": 360,
      "°": 361,
      "±": 362,
      "²": 363,
      "³": 364,
      "´": 365,
      "µ": 366,
      "¶": 367,
      "·": 368,
      "¸": 369,
      "º": 370,
      "»": 371,
      "½": 372,
      "¿": 373,
      "Å": 374,
      "É": 375,
      "Í": 376,
      "×": 377,
      "Ø": 378,
      "ß": 379,
      "à": 380,
      "á": 381,
      "â": 382,
      "ã": 383,
      "ä": 384,
      "å": 385,
      "æ": 386,
      "ç": 387,
      "è": 388,
      "é": 389,
      "ê": 390,
      "ë": 391,
      "ì": 392,
      "í": 393,
      "î": 394,
      "ñ": 395,
      "ò": 396,
      "ó": 397,
      "ô": 398,
      "ö": 399,
      "÷": 400,
      "ø": 401,
      "ù": 402,
      "ú": 403,
      "ü": 404,
      "ā": 405,
      "ă": 406,
      "ć": 407,
      "č": 408,
      "Đ": 409,
      "đ": 410,
      "ē": 411,
      "ě": 412,
      "ī": 413,
      "ı": 414,
      "ł": 415,
      "ō": 416,
      "ş": 417,
      "š": 418,
      "ū": 419,
      "ư": 420,
      "ǎ": 421,
      "ǐ": 422,
      "ǒ": 423,
      "ǔ": 424,
      "ə": 425,
      "ɪ": 426,
      "ʔ": 427,
      "ʕ": 428,
      "˂": 429,
      "˃": 430,
      "ˊ": 431,
      "ˋ": 432,
      "ː": 433,
      "˘": 434,
      "˙": 435,
      "˚": 436,
      "˝": 437,
      "̀": 438,
      "́": 439,
      "̄": 440,
      "̆": 441,
      "̈": 442,
      "̊": 443,
      "̑": 444,
      "̣": 445,
      "̤": 446,
      "̥": 447,
      "̩": 448,
      "̫": 449,
      "̮": 450,
      "̴": 451,
      "̵": 452,
      "̶": 453,
      "̷": 454,
      "͈": 455,
      "͡": 456,
      "Δ": 457,
      "Φ": 458,
      "Ω": 459,
      "ά": 460,
      "έ": 461,
      "ή": 462,
      "ί": 463,
      "α": 464,
      "β": 465,
      "γ": 466,
      "δ": 467,
      "ε": 468,
      "η": 469,
      "θ": 470,
      "ι": 471,
      "κ": 472,
      "λ": 473,
      "μ": 474,
      "ν": 475,
      "ο": 476,
      "π": 477,
      "ρ": 478,
      "ς": 479,
      "σ": 480,
      "τ": 481,
      "υ": 482,
      "φ": 483,
      "χ": 484,
      "ω": 485,
      "ό": 486,
      "А": 487,
      "Б": 488,
      "В": 489,
      "Д": 490,
      "И": 491,
      "К": 492,
      "М": 493,
      "Н": 494,
      "О": 495,
      "П": 496,
      "Р": 497,
      "С": 498,
      "Т": 499,
      "а": 500,
      "б": 501,
      "в": 502,
      "г": 503,
      "д": 504,
      "е": 505,
      "ж": 506,
      "з": 507,
      "и": 508,
      "й": 509,
      "к": 510,
      "л": 511,
      "м": 512,
      "н": 513,
      "о": 514,
      "п": 515,
      "р": 516,
      "с": 517,
      "т": 518,
      "у": 519,
      "ф": 520,
      "х": 521,
      "ц": 522,
      "ч": 523,
      "ш": 524,
      "щ": 525,
      "ы": 526,
      "ь": 527,
      "э": 528,
      "ю": 529,
      "я": 530,
      "і": 531,
      "ְ": 532,
      "ִ": 533,
      "ַ": 534,
      "ָ": 535,
      "ּ": 536,
      "א": 537,
      "ב": 538,
      "ה": 539,
      "ו": 540,
      "י": 541,
      "ל": 542,
      "ר": 543,
      "ا": 544,
      "ب": 545,
      "ة": 546,
      "ت": 547,
      "د": 548,
      "ر": 549,
      "ع": 550,
      "ل": 551,
      "م": 552,
      "ن": 553,
      "و": 554,
      "ي": 555,
      "٩": 556,
      "۶": 557,
      "ा": 558,
      "्": 559,
      "੭": 560,
      "ෆ": 561,
      "ก": 562,
      "ง": 563,
      "ท": 564,
      "น": 565,
      "ม": 566,
      "ย": 567,
      "ร": 568,
      "อ": 569,
      "ั": 570,
      "า": 571,
      "ิ": 572,
      "เ": 573,
      "่": 574,
      "้": 575,
      "๑": 576,
      "ღ": 577,
      "ᄏ": 578,
      "ᄒ": 579,
      "ᅲ": 580,
      "ᆞ": 581,
      "ᆢ": 582,
      "ᴗ": 583,
      "ᵔ": 584,
      "ᵕ": 585,
      "ả": 586,
      "ế": 587,
      "ệ": 588,
      "ộ": 589,
      "–": 590,
      "—": 591,
      "―": 592,
      "‘": 593,
      "’": 594,
      "“": 595,
      "”": 596,
      "†": 597,
      "•": 598,
      "‣": 599,
      "․": 600,
      "‥": 601,
      "…": 602,
      "‧": 603,
      "′": 604,
      "″": 605,
      "›": 606,
      "※": 607,
      "‼": 608,
      "‿": 609,
      "⁂": 610,
      "⁼": 611,
      "⁾": 612,
      "₂": 613,
      "₩": 614,
      "€": 615,
      "⃣": 616,
      "℃": 617,
      "ℓ": 618,
      "™": 619,
      "⅓": 620,
      "⅔": 621,
      "Ⅰ": 622,
      "Ⅱ": 623,
      "Ⅲ": 624,
      "Ⅳ": 625,
      "Ⅴ": 626,
      "Ⅵ": 627,
      "←": 628,
      "↑": 629,
      "→": 630,
      "↓": 631,
      "↔": 632,
      "↕": 633,
      "↗": 634,
      "↘": 635,
      "↙": 636,
      "⇒": 637,
      "⇨": 638,
      "∀": 639,
      "∇": 640,
      "∈": 641,
      "∎": 642,
      "−": 643,
      "∗": 644,
      "∘": 645,
      "∙": 646,
      "√": 647,
      "∞": 648,
      "∥": 649,
      "∨": 650,
      "∩": 651,
      "∴": 652,
      "∼": 653,
      "≒": 654,
      "≠": 655,
      "≤": 656,
      "≥": 657,
      "≪": 658,
      "≫": 659,
      "⊙": 660,
      "⋅": 661,
      "⋯": 662,
      "⏰": 663,
      "①": 664,
      "②": 665,
      "③": 666,
      "④": 667,
      "⑤": 668,
      "⑥": 669,
      "⑦": 670,
      "⑧": 671,
      "⑨": 672,
      "⑩": 673,
      "⑪": 674,
      "⑴": 675,
      "⑵": 676,
      "ⓐ": 677,
      "ⓑ": 678,
      "ⓒ": 679,
      "ⓝ": 680,
      "─": 681,
      "━": 682,
      "│": 683,
      "┃": 684,
      "┈": 685,
      "┌": 686,
      "┏": 687,
      "┐": 688,
      "┓": 689,
      "└": 690,
      "┗": 691,
      "┘": 692,
      "┛": 693,
      "├": 694,
      "┠": 695,
      "┤": 696,
      "┨": 697,
      "┬": 698,
      "┴": 699,
      "┼": 700,
      "╹": 701,
      "█": 702,
      "▒": 703,
      "■": 704,
      "□": 705,
      "▣": 706,
      "▦": 707,
      "▨": 708,
      "▩": 709,
      "▪": 710,
      "▫": 711,
      "▲": 712,
      "△": 713,
      "▴": 714,
      "▶": 715,
      "▷": 716,
      "▸": 717,
      "►": 718,
      "▼": 719,
      "▽": 720,
      "◀": 721,
      "◁": 722,
      "◆": 723,
      "◇": 724,
      "◈": 725,
      "◉": 726,
      "○": 727,
      "◎": 728,
      "●": 729,
      "◐": 730,
      "◑": 731,
      "◕": 732,
      "◞": 733,
      "◟": 734,
      "◡": 735,
      "◦": 736,
      "◯": 737,
      "◾": 738,
      "☀": 739,
      "☁": 740,
      "★": 741,
      "☆": 742,
      "☎": 743,
      "☏": 744,
      "☑": 745,
      "☕": 746,
      "☜": 747,
      "☝": 748,
      "☞": 749,
      "☺": 750,
      "☻": 751,
      "♀": 752,
      "♂": 753,
      "♠": 754,
      "♡": 755,
      "♣": 756,
      "♤": 757,
      "♥": 758,
      "♦": 759,
      "♧": 760,
      "♨": 761,
      "♩": 762,
      "♪": 763,
      "♬": 764,
      "♭": 765,
      "✅": 766,
      "✌": 767,
      "✓": 768,
      "✔": 769,
      "✦": 770,
      "✧": 771,
      "✨": 772,
      "✿": 773,
      "❁": 774,
      "❌": 775,
      "❍": 776,
      "❕": 777,
      "❗": 778,
      "❛": 779,
      "❣": 780,
      "❤": 781,
      "➖": 782,
      "➡": 783,
      "➰": 784,
      "⠀": 785,
      "⣿": 786,
      "⦁": 787,
      "⫬": 788,
      "⬆": 789,
      "⬇": 790,
      "⬛": 791,
      "⭐": 792,
      "⭕": 793,
      "⸝": 794,
      "、": 795,
      "。": 796,
      "〃": 797,
      "々": 798,
      "〇": 799,
      "〈": 800,
      "〉": 801,
      "《": 802,
      "》": 803,
      "「": 804,
      "」": 805,
      "『": 806,
      "』": 807,
      "【": 808,
      "】": 809,
      "〓": 810,
      "〔": 811,
      "〕": 812,
      "〜": 813,
      "〰": 814,
      "ぁ": 815,
      "あ": 816,
      "い": 817,
      "う": 818,
      "え": 819,
      "お": 820,
      "か": 821,
      "が": 822,
      "き": 823,
      "ぎ": 824,
      "く": 825,
      "ぐ": 826,
      "け": 827,
      "げ": 828,
      "こ": 829,
      "ご": 830,
      "さ": 831,
      "ざ": 832,
      "し": 833,
      "じ": 834,
      "す": 835,
      "ず": 836,
      "せ": 837,
      "ぜ": 838,
      "そ": 839,
      "ぞ": 840,
      "た": 841,
      "だ": 842,
      "ち": 843,
      "っ": 844,
      "つ": 845,
      "づ": 846,
      "て": 847,
      "で": 848,
      "と": 849,
      "ど": 850,
      "な": 851,
      "に": 852,
      "ぬ": 853,
      "ね": 854,
      "の": 855,
      "は": 856,
      "ば": 857,
      "ぱ": 858,
      "ひ": 859,
      "び": 860,
      "ふ": 861,
      "ぶ": 862,
      "へ": 863,
      "べ": 864,
      "ほ": 865,
      "ぼ": 866,
      "ま": 867,
      "み": 868,
      "む": 869,
      "め": 870,
      "も": 871,
      "ゃ": 872,
      "や": 873,
      "ゅ": 874,
      "ゆ": 875,
      "ょ": 876,
      "よ": 877,
      "ら": 878,
      "り": 879,
      "る": 880,
      "れ": 881,
      "ろ": 882,
      "わ": 883,
      "を": 884,
      "ん": 885,
      "゚": 886,
      "ァ": 887,
      "ア": 888,
      "ィ": 889,
      "イ": 890,
      "ウ": 891,
      "ェ": 892,
      "エ": 893,
      "ォ": 894,
      "オ": 895,
      "カ": 896,
      "ガ": 897,
      "キ": 898,
      "ギ": 899,
      "ク": 900,
      "グ": 901,
      "ケ": 902,
      "ゲ": 903,
      "コ": 904,
      "ゴ": 905,
      "サ": 906,
      "ザ": 907,
      "シ": 908,
      "ジ": 909,
      "ス": 910,
      "ズ": 911,
      "セ": 912,
      "ソ": 913,
      "タ": 914,
      "ダ": 915,
      "チ": 916,
      "ッ": 917,
      "ツ": 918,
      "テ": 919,
      "デ": 920,
      "ト": 921,
      "ド": 922,
      "ナ": 923,
      "ニ": 924,
      "ネ": 925,
      "ノ": 926,
      "ハ": 927,
      "バ": 928,
      "パ": 929,
      "ヒ": 930,
      "ビ": 931,
      "ピ": 932,
      "フ": 933,
      "ブ": 934,
      "プ": 935,
      "ベ": 936,
      "ペ": 937,
      "ホ": 938,
      "ボ": 939,
      "ポ": 940,
      "マ": 941,
      "ミ": 942,
      "ム": 943,
      "メ": 944,
      "モ": 945,
      "ャ": 946,
      "ヤ": 947,
      "ュ": 948,
      "ユ": 949,
      "ョ": 950,
      "ヨ": 951,
      "ラ": 952,
      "リ": 953,
      "ル": 954,
      "レ": 955,
      "ロ": 956,
      "ワ": 957,
      "ヲ": 958,
      "ン": 959,
      "ヴ": 960,
      "・": 961,
      "ー": 962,
      "ヽ": 963,
      "ㄱ": 964,
      "ㄲ": 965,
      "ㄳ": 966,
      "ㄴ": 967,
      "ㄷ": 968,
      "ㄸ": 969,
      "ㄹ": 970,
      "ㅁ": 971,
      "ㅂ": 972,
      "ㅃ": 973,
      "ㅅ": 974,
      "ㅆ": 975,
      "ㅇ": 976,
      "ㅈ": 977,
      "ㅉ": 978,
      "ㅊ": 979,
      "ㅋ": 980,
      "ㅌ": 981,
      "ㅍ": 982,
      "ㅎ": 983,
      "ㅏ": 984,
      "ㅐ": 985,
      "ㅑ": 986,
      "ㅓ": 987,
      "ㅔ": 988,
      "ㅕ": 989,
      "ㅗ": 990,
      "ㅛ": 991,
      "ㅜ": 992,
      "ㅠ": 993,
      "ㅡ": 994,
      "ㅣ": 995,
      "ㅤ": 996,
      "ㆍ": 997,
      "㈜": 998,
      "㉠": 999,
      "㉡": 1000,
      "㉢": 1001,
      "㎍": 1002,
      "㎎": 1003,
      "㎏": 1004,
      "㎒": 1005,
      "㎓": 1006,
      "㎕": 1007,
      "㎖": 1008,
      "㎚": 1009,
      "㎛": 1010,
      "㎜": 1011,
      "㎝": 1012,
      "㎞": 1013,
      "㎠": 1014,
      "㎡": 1015,
      "㎢": 1016,
      "㎥": 1017,
      "㎾": 1018,
      "㎿": 1019,
      "㏊": 1020,
      "一": 1021,
      "丁": 1022,
      "七": 1023,
      "万": 1024,
      "丈": 1025,
      "三": 1026,
      "上": 1027,
      "下": 1028,
      "不": 1029,
      "与": 1030,
      "丑": 1031,
      "且": 1032,
      "世": 1033,
      "丘": 1034,
      "丙": 1035,
      "业": 1036,
      "东": 1037,
      "个": 1038,
      "中": 1039,
      "丸": 1040,
      "丹": 1041,
      "为": 1042,
      "主": 1043,
      "乃": 1044,
      "久": 1045,
      "么": 1046,
      "之": 1047,
      "乎": 1048,
      "乐": 1049,
      "乘": 1050,
      "乙": 1051,
      "九": 1052,
      "也": 1053,
      "乡": 1054,
      "乾": 1055,
      "亂": 1056,
      "了": 1057,
      "予": 1058,
      "事": 1059,
      "二": 1060,
      "于": 1061,
      "云": 1062,
      "五": 1063,
      "井": 1064,
      "些": 1065,
      "亞": 1066,
      "亡": 1067,
      "交": 1068,
      "亥": 1069,
      "亦": 1070,
      "亨": 1071,
      "京": 1072,
      "亭": 1073,
      "人": 1074,
      "什": 1075,
      "仁": 1076,
      "今": 1077,
      "介": 1078,
      "从": 1079,
      "仕": 1080,
      "他": 1081,
      "付": 1082,
      "仙": 1083,
      "代": 1084,
      "令": 1085,
      "以": 1086,
      "们": 1087,
      "仲": 1088,
      "件": 1089,
      "任": 1090,
      "企": 1091,
      "伊": 1092,
      "伏": 1093,
      "休": 1094,
      "会": 1095,
      "伝": 1096,
      "伯": 1097,
      "似": 1098,
      "但": 1099,
      "位": 1100,
      "低": 1101,
      "住": 1102,
      "佐": 1103,
      "体": 1104,
      "何": 1105,
      "佛": 1106,
      "作": 1107,
      "你": 1108,
      "使": 1109,
      "來": 1110,
      "例": 1111,
      "侍": 1112,
      "供": 1113,
      "依": 1114,
      "侯": 1115,
      "便": 1116,
      "係": 1117,
      "俊": 1118,
      "俗": 1119,
      "保": 1120,
      "信": 1121,
      "修": 1122,
      "俺": 1123,
      "倉": 1124,
      "個": 1125,
      "倍": 1126,
      "候": 1127,
      "假": 1128,
      "偏": 1129,
      "做": 1130,
      "健": 1131,
      "備": 1132,
      "傳": 1133,
      "傷": 1134,
      "像": 1135,
      "僕": 1136,
      "僧": 1137,
      "價": 1138,
      "儀": 1139,
      "儒": 1140,
      "優": 1141,
      "儿": 1142,
      "元": 1143,
      "兄": 1144,
      "兆": 1145,
      "先": 1146,
      "光": 1147,
      "克": 1148,
      "免": 1149,
      "兒": 1150,
      "入": 1151,
      "內": 1152,
      "全": 1153,
      "兩": 1154,
      "八": 1155,
      "公": 1156,
      "六": 1157,
      "兮": 1158,
      "共": 1159,
      "关": 1160,
      "兵": 1161,
      "其": 1162,
      "具": 1163,
      "典": 1164,
      "内": 1165,
      "再": 1166,
      "写": 1167,
      "冠": 1168,
      "冬": 1169,
      "冷": 1170,
      "凶": 1171,
      "出": 1172,
      "刀": 1173,
      "分": 1174,
      "切": 1175,
      "刑": 1176,
      "列": 1177,
      "初": 1178,
      "判": 1179,
      "別": 1180,
      "利": 1181,
      "别": 1182,
      "到": 1183,
      "制": 1184,
      "刺": 1185,
      "刻": 1186,
      "則": 1187,
      "前": 1188,
      "剛": 1189,
      "副": 1190,
      "創": 1191,
      "劉": 1192,
      "力": 1193,
      "功": 1194,
      "加": 1195,
      "动": 1196,
      "助": 1197,
      "勇": 1198,
      "動": 1199,
      "務": 1200,
      "勝": 1201,
      "勞": 1202,
      "勢": 1203,
      "包": 1204,
      "化": 1205,
      "北": 1206,
      "区": 1207,
      "區": 1208,
      "十": 1209,
      "千": 1210,
      "升": 1211,
      "午": 1212,
      "半": 1213,
      "協": 1214,
      "南": 1215,
      "博": 1216,
      "占": 1217,
      "卯": 1218,
      "印": 1219,
      "危": 1220,
      "卷": 1221,
      "卽": 1222,
      "卿": 1223,
      "厚": 1224,
      "原": 1225,
      "去": 1226,
      "參": 1227,
      "又": 1228,
      "及": 1229,
      "友": 1230,
      "反": 1231,
      "发": 1232,
      "叔": 1233,
      "取": 1234,
      "受": 1235,
      "口": 1236,
      "古": 1237,
      "句": 1238,
      "只": 1239,
      "可": 1240,
      "台": 1241,
      "史": 1242,
      "右": 1243,
      "号": 1244,
      "司": 1245,
      "吃": 1246,
      "各": 1247,
      "合": 1248,
      "吉": 1249,
      "同": 1250,
      "名": 1251,
      "后": 1252,
      "吏": 1253,
      "向": 1254,
      "君": 1255,
      "吧": 1256,
      "含": 1257,
      "吳": 1258,
      "吾": 1259,
      "告": 1260,
      "周": 1261,
      "味": 1262,
      "呼": 1263,
      "命": 1264,
      "和": 1265,
      "咸": 1266,
      "哀": 1267,
      "品": 1268,
      "員": 1269,
      "哲": 1270,
      "唐": 1271,
      "唯": 1272,
      "商": 1273,
      "問": 1274,
      "啓": 1275,
      "善": 1276,
      "喜": 1277,
      "喪": 1278,
      "嘉": 1279,
      "器": 1280,
      "嚴": 1281,
      "四": 1282,
      "回": 1283,
      "因": 1284,
      "固": 1285,
      "国": 1286,
      "國": 1287,
      "園": 1288,
      "圓": 1289,
      "圖": 1290,
      "團": 1291,
      "土": 1292,
      "在": 1293,
      "圭": 1294,
      "地": 1295,
      "场": 1296,
      "均": 1297,
      "坐": 1298,
      "坤": 1299,
      "型": 1300,
      "城": 1301,
      "域": 1302,
      "執": 1303,
      "基": 1304,
      "堂": 1305,
      "報": 1306,
      "場": 1307,
      "塔": 1308,
      "境": 1309,
      "墓": 1310,
      "增": 1311,
      "壁": 1312,
      "士": 1313,
      "壬": 1314,
      "声": 1315,
      "壽": 1316,
      "変": 1317,
      "夏": 1318,
      "外": 1319,
      "多": 1320,
      "夜": 1321,
      "夢": 1322,
      "大": 1323,
      "天": 1324,
      "太": 1325,
      "夫": 1326,
      "央": 1327,
      "失": 1328,
      "头": 1329,
      "奇": 1330,
      "奈": 1331,
      "奉": 1332,
      "女": 1333,
      "好": 1334,
      "如": 1335,
      "妙": 1336,
      "妻": 1337,
      "始": 1338,
      "姓": 1339,
      "委": 1340,
      "姜": 1341,
      "威": 1342,
      "婚": 1343,
      "婦": 1344,
      "子": 1345,
      "孔": 1346,
      "字": 1347,
      "存": 1348,
      "孝": 1349,
      "孟": 1350,
      "季": 1351,
      "孤": 1352,
      "学": 1353,
      "孫": 1354,
      "學": 1355,
      "宇": 1356,
      "守": 1357,
      "安": 1358,
      "宋": 1359,
      "完": 1360,
      "宗": 1361,
      "官": 1362,
      "定": 1363,
      "宜": 1364,
      "实": 1365,
      "実": 1366,
      "客": 1367,
      "宣": 1368,
      "室": 1369,
      "宮": 1370,
      "害": 1371,
      "家": 1372,
      "容": 1373,
      "宿": 1374,
      "寅": 1375,
      "密": 1376,
      "富": 1377,
      "寒": 1378,
      "察": 1379,
      "實": 1380,
      "寧": 1381,
      "寶": 1382,
      "对": 1383,
      "寺": 1384,
      "対": 1385,
      "封": 1386,
      "射": 1387,
      "将": 1388,
      "將": 1389,
      "尊": 1390,
      "對": 1391,
      "導": 1392,
      "小": 1393,
      "少": 1394,
      "尙": 1395,
      "就": 1396,
      "尹": 1397,
      "尼": 1398,
      "尾": 1399,
      "局": 1400,
      "居": 1401,
      "屋": 1402,
      "展": 1403,
      "属": 1404,
      "層": 1405,
      "屬": 1406,
      "山": 1407,
      "岡": 1408,
      "岩": 1409,
      "岳": 1410,
      "岸": 1411,
      "峰": 1412,
      "島": 1413,
      "崇": 1414,
      "崎": 1415,
      "崔": 1416,
      "嶺": 1417,
      "巖": 1418,
      "川": 1419,
      "州": 1420,
      "工": 1421,
      "左": 1422,
      "巨": 1423,
      "差": 1424,
      "己": 1425,
      "已": 1426,
      "巳": 1427,
      "市": 1428,
      "布": 1429,
      "希": 1430,
      "帝": 1431,
      "師": 1432,
      "帶": 1433,
      "常": 1434,
      "干": 1435,
      "平": 1436,
      "年": 1437,
      "幸": 1438,
      "序": 1439,
      "店": 1440,
      "庚": 1441,
      "府": 1442,
      "度": 1443,
      "座": 1444,
      "庫": 1445,
      "庭": 1446,
      "庵": 1447,
      "康": 1448,
      "廣": 1449,
      "廳": 1450,
      "延": 1451,
      "建": 1452,
      "开": 1453,
      "式": 1454,
      "引": 1455,
      "弗": 1456,
      "弘": 1457,
      "弟": 1458,
      "弱": 1459,
      "張": 1460,
      "強": 1461,
      "强": 1462,
      "当": 1463,
      "形": 1464,
      "彦": 1465,
      "影": 1466,
      "役": 1467,
      "彼": 1468,
      "往": 1469,
      "待": 1470,
      "很": 1471,
      "律": 1472,
      "後": 1473,
      "徐": 1474,
      "徒": 1475,
      "得": 1476,
      "從": 1477,
      "御": 1478,
      "復": 1479,
      "微": 1480,
      "德": 1481,
      "心": 1482,
      "必": 1483,
      "忍": 1484,
      "志": 1485,
      "忘": 1486,
      "忠": 1487,
      "快": 1488,
      "念": 1489,
      "怒": 1490,
      "思": 1491,
      "急": 1492,
      "性": 1493,
      "恋": 1494,
      "恐": 1495,
      "恒": 1496,
      "恩": 1497,
      "恭": 1498,
      "息": 1499,
      "悪": 1500,
      "悲": 1501,
      "情": 1502,
      "惠": 1503,
      "惡": 1504,
      "想": 1505,
      "意": 1506,
      "愚": 1507,
      "愛": 1508,
      "感": 1509,
      "慈": 1510,
      "態": 1511,
      "慧": 1512,
      "慶": 1513,
      "憲": 1514,
      "應": 1515,
      "戊": 1516,
      "戌": 1517,
      "成": 1518,
      "我": 1519,
      "戒": 1520,
      "或": 1521,
      "戦": 1522,
      "戰": 1523,
      "戶": 1524,
      "房": 1525,
      "所": 1526,
      "手": 1527,
      "才": 1528,
      "打": 1529,
      "承": 1530,
      "技": 1531,
      "把": 1532,
      "投": 1533,
      "抱": 1534,
      "拜": 1535,
      "持": 1536,
      "指": 1537,
      "振": 1538,
      "探": 1539,
      "接": 1540,
      "推": 1541,
      "提": 1542,
      "摩": 1543,
      "撃": 1544,
      "支": 1545,
      "收": 1546,
      "改": 1547,
      "攻": 1548,
      "放": 1549,
      "政": 1550,
      "故": 1551,
      "效": 1552,
      "敎": 1553,
      "救": 1554,
      "敗": 1555,
      "教": 1556,
      "散": 1557,
      "敦": 1558,
      "敬": 1559,
      "数": 1560,
      "整": 1561,
      "敵": 1562,
      "數": 1563,
      "文": 1564,
      "斗": 1565,
      "料": 1566,
      "斯": 1567,
      "新": 1568,
      "斷": 1569,
      "方": 1570,
      "於": 1571,
      "施": 1572,
      "旅": 1573,
      "族": 1574,
      "无": 1575,
      "日": 1576,
      "旨": 1577,
      "早": 1578,
      "时": 1579,
      "旺": 1580,
      "昇": 1581,
      "昌": 1582,
      "明": 1583,
      "易": 1584,
      "星": 1585,
      "映": 1586,
      "春": 1587,
      "昭": 1588,
      "是": 1589,
      "時": 1590,
      "晉": 1591,
      "晋": 1592,
      "普": 1593,
      "景": 1594,
      "智": 1595,
      "暗": 1596,
      "曆": 1597,
      "曰": 1598,
      "曲": 1599,
      "更": 1600,
      "書": 1601,
      "曹": 1602,
      "曺": 1603,
      "曾": 1604,
      "最": 1605,
      "會": 1606,
      "月": 1607,
      "有": 1608,
      "服": 1609,
      "望": 1610,
      "朝": 1611,
      "期": 1612,
      "木": 1613,
      "未": 1614,
      "末": 1615,
      "本": 1616,
      "朱": 1617,
      "朴": 1618,
      "机": 1619,
      "李": 1620,
      "材": 1621,
      "村": 1622,
      "束": 1623,
      "来": 1624,
      "東": 1625,
      "松": 1626,
      "板": 1627,
      "林": 1628,
      "果": 1629,
      "枝": 1630,
      "染": 1631,
      "柱": 1632,
      "柳": 1633,
      "査": 1634,
      "校": 1635,
      "株": 1636,
      "样": 1637,
      "核": 1638,
      "根": 1639,
      "格": 1640,
      "桂": 1641,
      "桃": 1642,
      "案": 1643,
      "桓": 1644,
      "梁": 1645,
      "梅": 1646,
      "條": 1647,
      "森": 1648,
      "植": 1649,
      "楊": 1650,
      "楚": 1651,
      "業": 1652,
      "極": 1653,
      "楽": 1654,
      "榮": 1655,
      "構": 1656,
      "様": 1657,
      "樂": 1658,
      "樓": 1659,
      "模": 1660,
      "樹": 1661,
      "橋": 1662,
      "機": 1663,
      "檢": 1664,
      "權": 1665,
      "次": 1666,
      "欲": 1667,
      "歌": 1668,
      "止": 1669,
      "正": 1670,
      "此": 1671,
      "步": 1672,
      "武": 1673,
      "歲": 1674,
      "歷": 1675,
      "歸": 1676,
      "死": 1677,
      "段": 1678,
      "殺": 1679,
      "殿": 1680,
      "母": 1681,
      "每": 1682,
      "毒": 1683,
      "比": 1684,
      "毛": 1685,
      "氏": 1686,
      "民": 1687,
      "気": 1688,
      "氣": 1689,
      "水": 1690,
      "氷": 1691,
      "永": 1692,
      "求": 1693,
      "汗": 1694,
      "江": 1695,
      "池": 1696,
      "決": 1697,
      "沈": 1698,
      "沖": 1699,
      "沙": 1700,
      "没": 1701,
      "河": 1702,
      "油": 1703,
      "治": 1704,
      "泉": 1705,
      "法": 1706,
      "波": 1707,
      "泣": 1708,
      "注": 1709,
      "泰": 1710,
      "洋": 1711,
      "洙": 1712,
      "洛": 1713,
      "洞": 1714,
      "津": 1715,
      "洪": 1716,
      "活": 1717,
      "派": 1718,
      "流": 1719,
      "浦": 1720,
      "浩": 1721,
      "浪": 1722,
      "浮": 1723,
      "海": 1724,
      "消": 1725,
      "液": 1726,
      "淨": 1727,
      "深": 1728,
      "淳": 1729,
      "淵": 1730,
      "淸": 1731,
      "清": 1732,
      "渡": 1733,
      "温": 1734,
      "港": 1735,
      "湖": 1736,
      "湯": 1737,
      "源": 1738,
      "準": 1739,
      "溪": 1740,
      "溫": 1741,
      "滅": 1742,
      "滿": 1743,
      "演": 1744,
      "漢": 1745,
      "潤": 1746,
      "澤": 1747,
      "濕": 1748,
      "濟": 1749,
      "火": 1750,
      "災": 1751,
      "炎": 1752,
      "炳": 1753,
      "点": 1754,
      "為": 1755,
      "烈": 1756,
      "烏": 1757,
      "無": 1758,
      "然": 1759,
      "煥": 1760,
      "照": 1761,
      "熙": 1762,
      "熱": 1763,
      "燕": 1764,
      "營": 1765,
      "爭": 1766,
      "爱": 1767,
      "爲": 1768,
      "父": 1769,
      "片": 1770,
      "版": 1771,
      "牛": 1772,
      "牧": 1773,
      "物": 1774,
      "特": 1775,
      "犬": 1776,
      "狀": 1777,
      "獨": 1778,
      "獻": 1779,
      "玄": 1780,
      "率": 1781,
      "玉": 1782,
      "王": 1783,
      "现": 1784,
      "珍": 1785,
      "珠": 1786,
      "現": 1787,
      "球": 1788,
      "理": 1789,
      "瑞": 1790,
      "環": 1791,
      "甘": 1792,
      "生": 1793,
      "産": 1794,
      "用": 1795,
      "田": 1796,
      "由": 1797,
      "甲": 1798,
      "申": 1799,
      "电": 1800,
      "男": 1801,
      "町": 1802,
      "画": 1803,
      "界": 1804,
      "留": 1805,
      "略": 1806,
      "番": 1807,
      "異": 1808,
      "畵": 1809,
      "當": 1810,
      "疑": 1811,
      "疾": 1812,
      "病": 1813,
      "症": 1814,
      "痛": 1815,
      "痰": 1816,
      "療": 1817,
      "癸": 1818,
      "発": 1819,
      "登": 1820,
      "發": 1821,
      "白": 1822,
      "百": 1823,
      "的": 1824,
      "皆": 1825,
      "皇": 1826,
      "皮": 1827,
      "益": 1828,
      "盛": 1829,
      "盡": 1830,
      "監": 1831,
      "盧": 1832,
      "目": 1833,
      "直": 1834,
      "相": 1835,
      "省": 1836,
      "看": 1837,
      "県": 1838,
      "眞": 1839,
      "真": 1840,
      "眠": 1841,
      "眼": 1842,
      "着": 1843,
      "督": 1844,
      "矣": 1845,
      "知": 1846,
      "短": 1847,
      "石": 1848,
      "破": 1849,
      "硏": 1850,
      "碑": 1851,
      "確": 1852,
      "示": 1853,
      "社": 1854,
      "祖": 1855,
      "神": 1856,
      "祭": 1857,
      "祿": 1858,
      "禁": 1859,
      "禍": 1860,
      "福": 1861,
      "禪": 1862,
      "禮": 1863,
      "秀": 1864,
      "私": 1865,
      "秋": 1866,
      "科": 1867,
      "秘": 1868,
      "秦": 1869,
      "移": 1870,
      "稅": 1871,
      "程": 1872,
      "種": 1873,
      "稱": 1874,
      "積": 1875,
      "穴": 1876,
      "究": 1877,
      "空": 1878,
      "突": 1879,
      "立": 1880,
      "章": 1881,
      "童": 1882,
      "端": 1883,
      "竹": 1884,
      "笑": 1885,
      "第": 1886,
      "筆": 1887,
      "等": 1888,
      "筋": 1889,
      "答": 1890,
      "策": 1891,
      "算": 1892,
      "管": 1893,
      "節": 1894,
      "篇": 1895,
      "簡": 1896,
      "米": 1897,
      "精": 1898,
      "系": 1899,
      "紀": 1900,
      "約": 1901,
      "紅": 1902,
      "純": 1903,
      "紙": 1904,
      "素": 1905,
      "紫": 1906,
      "細": 1907,
      "終": 1908,
      "組": 1909,
      "結": 1910,
      "統": 1911,
      "絶": 1912,
      "經": 1913,
      "続": 1914,
      "線": 1915,
      "緣": 1916,
      "編": 1917,
      "縣": 1918,
      "總": 1919,
      "经": 1920,
      "给": 1921,
      "网": 1922,
      "罪": 1923,
      "置": 1924,
      "羅": 1925,
      "羊": 1926,
      "美": 1927,
      "群": 1928,
      "義": 1929,
      "羽": 1930,
      "習": 1931,
      "翼": 1932,
      "老": 1933,
      "考": 1934,
      "者": 1935,
      "而": 1936,
      "耳": 1937,
      "聖": 1938,
      "聞": 1939,
      "聲": 1940,
      "職": 1941,
      "肅": 1942,
      "肉": 1943,
      "肝": 1944,
      "育": 1945,
      "肺": 1946,
      "胃": 1947,
      "背": 1948,
      "胡": 1949,
      "胸": 1950,
      "能": 1951,
      "脈": 1952,
      "脫": 1953,
      "脾": 1954,
      "腎": 1955,
      "腫": 1956,
      "腸": 1957,
      "腹": 1958,
      "臟": 1959,
      "臣": 1960,
      "臨": 1961,
      "自": 1962,
      "至": 1963,
      "致": 1964,
      "臺": 1965,
      "與": 1966,
      "興": 1967,
      "舊": 1968,
      "舍": 1969,
      "舞": 1970,
      "般": 1971,
      "船": 1972,
      "良": 1973,
      "色": 1974,
      "花": 1975,
      "若": 1976,
      "苦": 1977,
      "英": 1978,
      "茶": 1979,
      "草": 1980,
      "莊": 1981,
      "莫": 1982,
      "菜": 1983,
      "菩": 1984,
      "華": 1985,
      "萬": 1986,
      "落": 1987,
      "葉": 1988,
      "著": 1989,
      "蓮": 1990,
      "薄": 1991,
      "薩": 1992,
      "藏": 1993,
      "藝": 1994,
      "藤": 1995,
      "藥": 1996,
      "蘇": 1997,
      "蘭": 1998,
      "虎": 1999,
      "處": 2000,
      "虛": 2001,
      "號": 2002,
      "血": 2003,
      "衆": 2004,
      "行": 2005,
      "術": 2006,
      "街": 2007,
      "衛": 2008,
      "衣": 2009,
      "表": 2010,
      "被": 2011,
      "裏": 2012,
      "補": 2013,
      "製": 2014,
      "西": 2015,
      "要": 2016,
      "見": 2017,
      "規": 2018,
      "視": 2019,
      "覚": 2020,
      "親": 2021,
      "覺": 2022,
      "觀": 2023,
      "见": 2024,
      "角": 2025,
      "解": 2026,
      "言": 2027,
      "計": 2028,
      "訓": 2029,
      "記": 2030,
      "設": 2031,
      "許": 2032,
      "註": 2033,
      "評": 2034,
      "詞": 2035,
      "試": 2036,
      "詩": 2037,
      "話": 2038,
      "誌": 2039,
      "認": 2040,
      "語": 2041,
      "誠": 2042,
      "說": 2043,
      "誰": 2044,
      "調": 2045,
      "談": 2046,
      "論": 2047,
      "諱": 2048,
      "諸": 2049,
      "謂": 2050,
      "謝": 2051,
      "證": 2052,
      "識": 2053,
      "警": 2054,
      "議": 2055,
      "護": 2056,
      "讀": 2057,
      "變": 2058,
      "话": 2059,
      "语": 2060,
      "说": 2061,
      "请": 2062,
      "谷": 2063,
      "豆": 2064,
      "豊": 2065,
      "象": 2066,
      "貞": 2067,
      "負": 2068,
      "財": 2069,
      "貫": 2070,
      "貴": 2071,
      "資": 2072,
      "賢": 2073,
      "質": 2074,
      "赤": 2075,
      "走": 2076,
      "起": 2077,
      "超": 2078,
      "越": 2079,
      "趙": 2080,
      "足": 2081,
      "路": 2082,
      "身": 2083,
      "車": 2084,
      "軍": 2085,
      "載": 2086,
      "輝": 2087,
      "輪": 2088,
      "轉": 2089,
      "车": 2090,
      "辛": 2091,
      "辨": 2092,
      "辭": 2093,
      "辰": 2094,
      "農": 2095,
      "込": 2096,
      "过": 2097,
      "迎": 2098,
      "近": 2099,
      "返": 2100,
      "还": 2101,
      "这": 2102,
      "进": 2103,
      "述": 2104,
      "迷": 2105,
      "追": 2106,
      "退": 2107,
      "送": 2108,
      "逆": 2109,
      "通": 2110,
      "速": 2111,
      "造": 2112,
      "逢": 2113,
      "連": 2114,
      "進": 2115,
      "遂": 2116,
      "遇": 2117,
      "遊": 2118,
      "運": 2119,
      "過": 2120,
      "道": 2121,
      "達": 2122,
      "違": 2123,
      "遠": 2124,
      "選": 2125,
      "遺": 2126,
      "還": 2127,
      "邊": 2128,
      "邑": 2129,
      "那": 2130,
      "邪": 2131,
      "郎": 2132,
      "郞": 2133,
      "郡": 2134,
      "部": 2135,
      "都": 2136,
      "鄕": 2137,
      "鄭": 2138,
      "酉": 2139,
      "配": 2140,
      "酒": 2141,
      "酸": 2142,
      "醫": 2143,
      "釋": 2144,
      "里": 2145,
      "重": 2146,
      "野": 2147,
      "量": 2148,
      "金": 2149,
      "鉉": 2150,
      "銀": 2151,
      "銅": 2152,
      "錄": 2153,
      "錢": 2154,
      "錦": 2155,
      "錫": 2156,
      "鍾": 2157,
      "鎬": 2158,
      "鎭": 2159,
      "鏡": 2160,
      "鐵": 2161,
      "鑑": 2162,
      "镇": 2163,
      "長": 2164,
      "长": 2165,
      "門": 2166,
      "開": 2167,
      "間": 2168,
      "関": 2169,
      "閣": 2170,
      "關": 2171,
      "门": 2172,
      "间": 2173,
      "防": 2174,
      "阿": 2175,
      "附": 2176,
      "降": 2177,
      "限": 2178,
      "院": 2179,
      "除": 2180,
      "陰": 2181,
      "陳": 2182,
      "陵": 2183,
      "陽": 2184,
      "隆": 2185,
      "隊": 2186,
      "際": 2187,
      "隨": 2188,
      "隱": 2189,
      "雄": 2190,
      "雅": 2191,
      "集": 2192,
      "雙": 2193,
      "離": 2194,
      "難": 2195,
      "雨": 2196,
      "雪": 2197,
      "雲": 2198,
      "雷": 2199,
      "電": 2200,
      "震": 2201,
      "露": 2202,
      "靈": 2203,
      "靑": 2204,
      "青": 2205,
      "靜": 2206,
      "非": 2207,
      "面": 2208,
      "革": 2209,
      "韓": 2210,
      "韩": 2211,
      "音": 2212,
      "順": 2213,
      "領": 2214,
      "頭": 2215,
      "題": 2216,
      "顔": 2217,
      "願": 2218,
      "類": 2219,
      "顯": 2220,
      "風": 2221,
      "飛": 2222,
      "食": 2223,
      "飮": 2224,
      "養": 2225,
      "餘": 2226,
      "館": 2227,
      "首": 2228,
      "香": 2229,
      "馬": 2230,
      "駅": 2231,
      "驛": 2232,
      "骨": 2233,
      "體": 2234,
      "高": 2235,
      "鬼": 2236,
      "魂": 2237,
      "魏": 2238,
      "魔": 2239,
      "魚": 2240,
      "魯": 2241,
      "鮮": 2242,
      "鳥": 2243,
      "鳳": 2244,
      "鳴": 2245,
      "鶴": 2246,
      "麗": 2247,
      "麻": 2248,
      "黃": 2249,
      "黑": 2250,
      "點": 2251,
      "黨": 2252,
      "鼓": 2253,
      "齊": 2254,
      "齋": 2255,
      "龍": 2256,
      "ꈍ": 2257,
      "꙼": 2258,
      "가": 2259,
      "각": 2260,
      "간": 2261,
      "갇": 2262,
      "갈": 2263,
      "갉": 2264,
      "감": 2265,
      "갑": 2266,
      "값": 2267,
      "갓": 2268,
      "갔": 2269,
      "강": 2270,
      "갖": 2271,
      "갗": 2272,
      "같": 2273,
      "갚": 2274,
      "갛": 2275,
      "개": 2276,
      "객": 2277,
      "갠": 2278,
      "갤": 2279,
      "갬": 2280,
      "갭": 2281,
      "갯": 2282,
      "갰": 2283,
      "갱": 2284,
      "갸": 2285,
      "걀": 2286,
      "걍": 2287,
      "걔": 2288,
      "거": 2289,
      "걱": 2290,
      "건": 2291,
      "걷": 2292,
      "걸": 2293,
      "검": 2294,
      "겁": 2295,
      "것": 2296,
      "겄": 2297,
      "겅": 2298,
      "겆": 2299,
      "겉": 2300,
      "겊": 2301,
      "겋": 2302,
      "게": 2303,
      "겐": 2304,
      "겔": 2305,
      "겜": 2306,
      "겟": 2307,
      "겠": 2308,
      "겡": 2309,
      "겨": 2310,
      "격": 2311,
      "겪": 2312,
      "견": 2313,
      "결": 2314,
      "겸": 2315,
      "겹": 2316,
      "겻": 2317,
      "겼": 2318,
      "경": 2319,
      "곁": 2320,
      "계": 2321,
      "곗": 2322,
      "곘": 2323,
      "고": 2324,
      "곡": 2325,
      "곤": 2326,
      "곧": 2327,
      "골": 2328,
      "곪": 2329,
      "곯": 2330,
      "곰": 2331,
      "곱": 2332,
      "곳": 2333,
      "공": 2334,
      "곶": 2335,
      "곸": 2336,
      "과": 2337,
      "곽": 2338,
      "관": 2339,
      "괄": 2340,
      "괌": 2341,
      "광": 2342,
      "괘": 2343,
      "괜": 2344,
      "괞": 2345,
      "괭": 2346,
      "괴": 2347,
      "괸": 2348,
      "굉": 2349,
      "교": 2350,
      "굣": 2351,
      "구": 2352,
      "국": 2353,
      "군": 2354,
      "굳": 2355,
      "굴": 2356,
      "굵": 2357,
      "굶": 2358,
      "굼": 2359,
      "굽": 2360,
      "굿": 2361,
      "궁": 2362,
      "궂": 2363,
      "궈": 2364,
      "권": 2365,
      "궐": 2366,
      "궜": 2367,
      "궤": 2368,
      "귀": 2369,
      "귄": 2370,
      "귈": 2371,
      "귓": 2372,
      "규": 2373,
      "균": 2374,
      "귤": 2375,
      "그": 2376,
      "극": 2377,
      "근": 2378,
      "글": 2379,
      "긁": 2380,
      "금": 2381,
      "급": 2382,
      "긋": 2383,
      "긍": 2384,
      "긔": 2385,
      "기": 2386,
      "긱": 2387,
      "긴": 2388,
      "길": 2389,
      "김": 2390,
      "깁": 2391,
      "깃": 2392,
      "깅": 2393,
      "깊": 2394,
      "까": 2395,
      "깍": 2396,
      "깎": 2397,
      "깐": 2398,
      "깔": 2399,
      "깜": 2400,
      "깝": 2401,
      "깟": 2402,
      "깠": 2403,
      "깡": 2404,
      "깥": 2405,
      "깨": 2406,
      "깬": 2407,
      "깰": 2408,
      "깻": 2409,
      "깼": 2410,
      "깽": 2411,
      "꺄": 2412,
      "꺅": 2413,
      "꺠": 2414,
      "꺼": 2415,
      "꺽": 2416,
      "꺾": 2417,
      "껀": 2418,
      "껄": 2419,
      "껌": 2420,
      "껍": 2421,
      "껏": 2422,
      "껐": 2423,
      "껑": 2424,
      "께": 2425,
      "껜": 2426,
      "껴": 2427,
      "꼇": 2428,
      "꼈": 2429,
      "꼐": 2430,
      "꼬": 2431,
      "꼭": 2432,
      "꼰": 2433,
      "꼴": 2434,
      "꼼": 2435,
      "꼽": 2436,
      "꼿": 2437,
      "꽁": 2438,
      "꽂": 2439,
      "꽃": 2440,
      "꽈": 2441,
      "꽉": 2442,
      "꽝": 2443,
      "꽤": 2444,
      "꽥": 2445,
      "꾀": 2446,
      "꾸": 2447,
      "꾹": 2448,
      "꾼": 2449,
      "꿀": 2450,
      "꿇": 2451,
      "꿈": 2452,
      "꿉": 2453,
      "꿋": 2454,
      "꿍": 2455,
      "꿎": 2456,
      "꿔": 2457,
      "꿧": 2458,
      "꿨": 2459,
      "꿩": 2460,
      "꿰": 2461,
      "뀌": 2462,
      "뀐": 2463,
      "뀔": 2464,
      "뀜": 2465,
      "뀝": 2466,
      "뀨": 2467,
      "끄": 2468,
      "끈": 2469,
      "끊": 2470,
      "끌": 2471,
      "끓": 2472,
      "끔": 2473,
      "끕": 2474,
      "끗": 2475,
      "끙": 2476,
      "끝": 2477,
      "끼": 2478,
      "끽": 2479,
      "낀": 2480,
      "낄": 2481,
      "낌": 2482,
      "낍": 2483,
      "낏": 2484,
      "낑": 2485,
      "나": 2486,
      "낙": 2487,
      "낚": 2488,
      "난": 2489,
      "날": 2490,
      "낡": 2491,
      "남": 2492,
      "납": 2493,
      "낫": 2494,
      "났": 2495,
      "낭": 2496,
      "낮": 2497,
      "낯": 2498,
      "낱": 2499,
      "낳": 2500,
      "내": 2501,
      "낵": 2502,
      "낸": 2503,
      "낼": 2504,
      "냄": 2505,
      "냅": 2506,
      "냇": 2507,
      "냈": 2508,
      "냉": 2509,
      "냐": 2510,
      "냑": 2511,
      "냔": 2512,
      "냘": 2513,
      "냠": 2514,
      "냥": 2515,
      "너": 2516,
      "넉": 2517,
      "넋": 2518,
      "넌": 2519,
      "널": 2520,
      "넒": 2521,
      "넓": 2522,
      "넘": 2523,
      "넙": 2524,
      "넛": 2525,
      "넜": 2526,
      "넝": 2527,
      "넣": 2528,
      "네": 2529,
      "넥": 2530,
      "넨": 2531,
      "넬": 2532,
      "넴": 2533,
      "넵": 2534,
      "넷": 2535,
      "넸": 2536,
      "넹": 2537,
      "넼": 2538,
      "녀": 2539,
      "녁": 2540,
      "년": 2541,
      "념": 2542,
      "녔": 2543,
      "녕": 2544,
      "녘": 2545,
      "녜": 2546,
      "노": 2547,
      "녹": 2548,
      "논": 2549,
      "놀": 2550,
      "놈": 2551,
      "놉": 2552,
      "놋": 2553,
      "농": 2554,
      "높": 2555,
      "놓": 2556,
      "놔": 2557,
      "놧": 2558,
      "놨": 2559,
      "뇌": 2560,
      "뇨": 2561,
      "뇬": 2562,
      "뇰": 2563,
      "뇸": 2564,
      "뇽": 2565,
      "누": 2566,
      "눅": 2567,
      "눈": 2568,
      "눌": 2569,
      "눔": 2570,
      "눕": 2571,
      "눗": 2572,
      "눙": 2573,
      "눠": 2574,
      "눴": 2575,
      "눼": 2576,
      "뉘": 2577,
      "뉜": 2578,
      "뉠": 2579,
      "뉩": 2580,
      "뉴": 2581,
      "늄": 2582,
      "늉": 2583,
      "느": 2584,
      "늑": 2585,
      "는": 2586,
      "늘": 2587,
      "늙": 2588,
      "늠": 2589,
      "능": 2590,
      "늦": 2591,
      "늪": 2592,
      "늬": 2593,
      "니": 2594,
      "닉": 2595,
      "닌": 2596,
      "닐": 2597,
      "님": 2598,
      "닙": 2599,
      "닛": 2600,
      "닝": 2601,
      "닠": 2602,
      "닢": 2603,
      "다": 2604,
      "닥": 2605,
      "닦": 2606,
      "단": 2607,
      "닫": 2608,
      "달": 2609,
      "닭": 2610,
      "닮": 2611,
      "닳": 2612,
      "담": 2613,
      "답": 2614,
      "닷": 2615,
      "당": 2616,
      "닻": 2617,
      "닼": 2618,
      "닿": 2619,
      "대": 2620,
      "댁": 2621,
      "댄": 2622,
      "댈": 2623,
      "댐": 2624,
      "댑": 2625,
      "댓": 2626,
      "댔": 2627,
      "댕": 2628,
      "댜": 2629,
      "댱": 2630,
      "더": 2631,
      "덕": 2632,
      "덖": 2633,
      "던": 2634,
      "덜": 2635,
      "덟": 2636,
      "덤": 2637,
      "덥": 2638,
      "덧": 2639,
      "덩": 2640,
      "덫": 2641,
      "덮": 2642,
      "데": 2643,
      "덱": 2644,
      "덴": 2645,
      "델": 2646,
      "뎀": 2647,
      "뎁": 2648,
      "뎃": 2649,
      "뎅": 2650,
      "뎈": 2651,
      "뎌": 2652,
      "뎠": 2653,
      "도": 2654,
      "독": 2655,
      "돈": 2656,
      "돋": 2657,
      "돌": 2658,
      "돔": 2659,
      "돕": 2660,
      "돗": 2661,
      "동": 2662,
      "돛": 2663,
      "돠": 2664,
      "돼": 2665,
      "됀": 2666,
      "됌": 2667,
      "됍": 2668,
      "됏": 2669,
      "됐": 2670,
      "되": 2671,
      "된": 2672,
      "될": 2673,
      "됨": 2674,
      "됩": 2675,
      "됫": 2676,
      "됬": 2677,
      "됴": 2678,
      "두": 2679,
      "둑": 2680,
      "둔": 2681,
      "둘": 2682,
      "둠": 2683,
      "둡": 2684,
      "둣": 2685,
      "둥": 2686,
      "둬": 2687,
      "뒀": 2688,
      "뒈": 2689,
      "뒤": 2690,
      "뒷": 2691,
      "뒹": 2692,
      "듀": 2693,
      "듄": 2694,
      "듈": 2695,
      "듐": 2696,
      "듕": 2697,
      "드": 2698,
      "득": 2699,
      "든": 2700,
      "듣": 2701,
      "들": 2702,
      "듦": 2703,
      "듬": 2704,
      "듭": 2705,
      "듯": 2706,
      "등": 2707,
      "듸": 2708,
      "디": 2709,
      "딕": 2710,
      "딘": 2711,
      "딛": 2712,
      "딜": 2713,
      "딤": 2714,
      "딥": 2715,
      "딧": 2716,
      "딨": 2717,
      "딩": 2718,
      "딪": 2719,
      "따": 2720,
      "딱": 2721,
      "딴": 2722,
      "딸": 2723,
      "땀": 2724,
      "땃": 2725,
      "땄": 2726,
      "땅": 2727,
      "땋": 2728,
      "때": 2729,
      "땐": 2730,
      "땔": 2731,
      "땜": 2732,
      "땟": 2733,
      "땠": 2734,
      "땡": 2735,
      "땨": 2736,
      "떄": 2737,
      "떙": 2738,
      "떠": 2739,
      "떡": 2740,
      "떤": 2741,
      "떨": 2742,
      "떫": 2743,
      "떳": 2744,
      "떴": 2745,
      "떵": 2746,
      "떻": 2747,
      "떼": 2748,
      "뗀": 2749,
      "뗄": 2750,
      "뗏": 2751,
      "뗐": 2752,
      "또": 2753,
      "똑": 2754,
      "똘": 2755,
      "똠": 2756,
      "똥": 2757,
      "똬": 2758,
      "똭": 2759,
      "뙇": 2760,
      "뚜": 2761,
      "뚝": 2762,
      "뚠": 2763,
      "뚤": 2764,
      "뚫": 2765,
      "뚱": 2766,
      "뛰": 2767,
      "뛴": 2768,
      "뛸": 2769,
      "뜀": 2770,
      "뜨": 2771,
      "뜩": 2772,
      "뜬": 2773,
      "뜯": 2774,
      "뜰": 2775,
      "뜸": 2776,
      "뜹": 2777,
      "뜻": 2778,
      "띄": 2779,
      "띈": 2780,
      "띌": 2781,
      "띔": 2782,
      "띕": 2783,
      "띠": 2784,
      "띤": 2785,
      "띨": 2786,
      "띵": 2787,
      "라": 2788,
      "락": 2789,
      "란": 2790,
      "랄": 2791,
      "람": 2792,
      "랍": 2793,
      "랏": 2794,
      "랐": 2795,
      "랑": 2796,
      "랖": 2797,
      "랗": 2798,
      "래": 2799,
      "랙": 2800,
      "랜": 2801,
      "랠": 2802,
      "램": 2803,
      "랩": 2804,
      "랫": 2805,
      "랬": 2806,
      "랭": 2807,
      "랴": 2808,
      "략": 2809,
      "량": 2810,
      "러": 2811,
      "럭": 2812,
      "런": 2813,
      "럴": 2814,
      "럼": 2815,
      "럽": 2816,
      "럿": 2817,
      "렀": 2818,
      "렁": 2819,
      "렇": 2820,
      "레": 2821,
      "렉": 2822,
      "렌": 2823,
      "렐": 2824,
      "렘": 2825,
      "렙": 2826,
      "렛": 2827,
      "렜": 2828,
      "렝": 2829,
      "려": 2830,
      "력": 2831,
      "련": 2832,
      "렬": 2833,
      "렴": 2834,
      "렵": 2835,
      "렷": 2836,
      "렸": 2837,
      "령": 2838,
      "례": 2839,
      "롄": 2840,
      "로": 2841,
      "록": 2842,
      "론": 2843,
      "롤": 2844,
      "롬": 2845,
      "롭": 2846,
      "롯": 2847,
      "롱": 2848,
      "롷": 2849,
      "롸": 2850,
      "뢰": 2851,
      "료": 2852,
      "룡": 2853,
      "루": 2854,
      "룩": 2855,
      "룬": 2856,
      "룰": 2857,
      "룸": 2858,
      "룹": 2859,
      "룻": 2860,
      "룽": 2861,
      "뤄": 2862,
      "뤘": 2863,
      "뤠": 2864,
      "뤼": 2865,
      "뤽": 2866,
      "륄": 2867,
      "류": 2868,
      "륙": 2869,
      "륜": 2870,
      "률": 2871,
      "륨": 2872,
      "륭": 2873,
      "르": 2874,
      "륵": 2875,
      "른": 2876,
      "를": 2877,
      "름": 2878,
      "릅": 2879,
      "릇": 2880,
      "릉": 2881,
      "릎": 2882,
      "리": 2883,
      "릭": 2884,
      "린": 2885,
      "릴": 2886,
      "림": 2887,
      "립": 2888,
      "릿": 2889,
      "링": 2890,
      "마": 2891,
      "막": 2892,
      "만": 2893,
      "많": 2894,
      "맏": 2895,
      "말": 2896,
      "맑": 2897,
      "맘": 2898,
      "맙": 2899,
      "맛": 2900,
      "망": 2901,
      "맞": 2902,
      "맟": 2903,
      "맡": 2904,
      "맣": 2905,
      "매": 2906,
      "맥": 2907,
      "맨": 2908,
      "맬": 2909,
      "맴": 2910,
      "맵": 2911,
      "맷": 2912,
      "맸": 2913,
      "맹": 2914,
      "맺": 2915,
      "먀": 2916,
      "먄": 2917,
      "머": 2918,
      "먹": 2919,
      "먼": 2920,
      "멀": 2921,
      "멈": 2922,
      "멋": 2923,
      "멍": 2924,
      "멎": 2925,
      "멓": 2926,
      "메": 2927,
      "멕": 2928,
      "멘": 2929,
      "멜": 2930,
      "멤": 2931,
      "멥": 2932,
      "멧": 2933,
      "멩": 2934,
      "며": 2935,
      "멱": 2936,
      "면": 2937,
      "멸": 2938,
      "몄": 2939,
      "명": 2940,
      "몆": 2941,
      "몇": 2942,
      "모": 2943,
      "목": 2944,
      "몫": 2945,
      "몬": 2946,
      "몰": 2947,
      "몸": 2948,
      "몹": 2949,
      "못": 2950,
      "몽": 2951,
      "뫼": 2952,
      "묘": 2953,
      "묜": 2954,
      "무": 2955,
      "묵": 2956,
      "묶": 2957,
      "문": 2958,
      "묻": 2959,
      "물": 2960,
      "묽": 2961,
      "뭄": 2962,
      "뭅": 2963,
      "뭇": 2964,
      "뭉": 2965,
      "뭍": 2966,
      "뭐": 2967,
      "뭔": 2968,
      "뭘": 2969,
      "뭡": 2970,
      "뭣": 2971,
      "뭥": 2972,
      "뮈": 2973,
      "뮌": 2974,
      "뮐": 2975,
      "뮤": 2976,
      "뮨": 2977,
      "뮬": 2978,
      "뮴": 2979,
      "므": 2980,
      "믄": 2981,
      "믈": 2982,
      "믐": 2983,
      "믓": 2984,
      "미": 2985,
      "믹": 2986,
      "민": 2987,
      "믿": 2988,
      "밀": 2989,
      "밈": 2990,
      "밉": 2991,
      "밋": 2992,
      "밌": 2993,
      "밍": 2994,
      "및": 2995,
      "밑": 2996,
      "바": 2997,
      "박": 2998,
      "밖": 2999,
      "반": 3000,
      "받": 3001,
      "발": 3002,
      "밝": 3003,
      "밟": 3004,
      "밤": 3005,
      "밥": 3006,
      "밧": 3007,
      "방": 3008,
      "밭": 3009,
      "배": 3010,
      "백": 3011,
      "밴": 3012,
      "밸": 3013,
      "뱀": 3014,
      "뱃": 3015,
      "뱅": 3016,
      "뱉": 3017,
      "뱌": 3018,
      "버": 3019,
      "벅": 3020,
      "번": 3021,
      "벌": 3022,
      "범": 3023,
      "법": 3024,
      "벗": 3025,
      "벙": 3026,
      "벚": 3027,
      "베": 3028,
      "벡": 3029,
      "벤": 3030,
      "벧": 3031,
      "벨": 3032,
      "벳": 3033,
      "벵": 3034,
      "벼": 3035,
      "벽": 3036,
      "변": 3037,
      "별": 3038,
      "볍": 3039,
      "볏": 3040,
      "볐": 3041,
      "병": 3042,
      "볕": 3043,
      "보": 3044,
      "복": 3045,
      "볶": 3046,
      "본": 3047,
      "볼": 3048,
      "봄": 3049,
      "봅": 3050,
      "봇": 3051,
      "봉": 3052,
      "봐": 3053,
      "봣": 3054,
      "봤": 3055,
      "봬": 3056,
      "뵈": 3057,
      "뵌": 3058,
      "뵐": 3059,
      "뵙": 3060,
      "뵤": 3061,
      "부": 3062,
      "북": 3063,
      "분": 3064,
      "붇": 3065,
      "불": 3066,
      "붉": 3067,
      "붐": 3068,
      "붓": 3069,
      "붕": 3070,
      "붙": 3071,
      "뷔": 3072,
      "뷰": 3073,
      "뷴": 3074,
      "뷸": 3075,
      "브": 3076,
      "븐": 3077,
      "블": 3078,
      "비": 3079,
      "빅": 3080,
      "빈": 3081,
      "빌": 3082,
      "빔": 3083,
      "빕": 3084,
      "빗": 3085,
      "빙": 3086,
      "빚": 3087,
      "빛": 3088,
      "빠": 3089,
      "빡": 3090,
      "빤": 3091,
      "빨": 3092,
      "빰": 3093,
      "빳": 3094,
      "빴": 3095,
      "빵": 3096,
      "빻": 3097,
      "빼": 3098,
      "빽": 3099,
      "뺀": 3100,
      "뺄": 3101,
      "뺌": 3102,
      "뺏": 3103,
      "뺐": 3104,
      "뺑": 3105,
      "뺨": 3106,
      "뺴": 3107,
      "뻐": 3108,
      "뻑": 3109,
      "뻔": 3110,
      "뻗": 3111,
      "뻘": 3112,
      "뻣": 3113,
      "뻤": 3114,
      "뻥": 3115,
      "뻬": 3116,
      "뼈": 3117,
      "뼉": 3118,
      "뼘": 3119,
      "뼛": 3120,
      "뽀": 3121,
      "뽁": 3122,
      "뽈": 3123,
      "뽐": 3124,
      "뽑": 3125,
      "뽕": 3126,
      "뾰": 3127,
      "뾱": 3128,
      "뿅": 3129,
      "뿌": 3130,
      "뿍": 3131,
      "뿐": 3132,
      "뿔": 3133,
      "뿜": 3134,
      "뿡": 3135,
      "쁘": 3136,
      "쁜": 3137,
      "쁠": 3138,
      "쁨": 3139,
      "쁩": 3140,
      "삐": 3141,
      "삑": 3142,
      "삔": 3143,
      "삘": 3144,
      "삥": 3145,
      "사": 3146,
      "삭": 3147,
      "삯": 3148,
      "산": 3149,
      "살": 3150,
      "삶": 3151,
      "삼": 3152,
      "삽": 3153,
      "삿": 3154,
      "샀": 3155,
      "상": 3156,
      "샅": 3157,
      "새": 3158,
      "색": 3159,
      "샌": 3160,
      "샐": 3161,
      "샘": 3162,
      "샛": 3163,
      "샜": 3164,
      "생": 3165,
      "샤": 3166,
      "샥": 3167,
      "샨": 3168,
      "샬": 3169,
      "샴": 3170,
      "샵": 3171,
      "샷": 3172,
      "샹": 3173,
      "샾": 3174,
      "섀": 3175,
      "서": 3176,
      "석": 3177,
      "섞": 3178,
      "선": 3179,
      "섣": 3180,
      "설": 3181,
      "섬": 3182,
      "섭": 3183,
      "섯": 3184,
      "섰": 3185,
      "성": 3186,
      "섴": 3187,
      "섶": 3188,
      "세": 3189,
      "섹": 3190,
      "센": 3191,
      "셀": 3192,
      "셈": 3193,
      "셉": 3194,
      "셋": 3195,
      "셌": 3196,
      "셍": 3197,
      "셔": 3198,
      "션": 3199,
      "셜": 3200,
      "셤": 3201,
      "셧": 3202,
      "셨": 3203,
      "셩": 3204,
      "셰": 3205,
      "셴": 3206,
      "셸": 3207,
      "소": 3208,
      "속": 3209,
      "솎": 3210,
      "손": 3211,
      "솔": 3212,
      "솜": 3213,
      "솝": 3214,
      "솟": 3215,
      "송": 3216,
      "솥": 3217,
      "솨": 3218,
      "쇄": 3219,
      "쇠": 3220,
      "쇳": 3221,
      "쇼": 3222,
      "쇽": 3223,
      "숀": 3224,
      "숄": 3225,
      "숍": 3226,
      "숏": 3227,
      "숑": 3228,
      "수": 3229,
      "숙": 3230,
      "순": 3231,
      "숟": 3232,
      "술": 3233,
      "숨": 3234,
      "숩": 3235,
      "숫": 3236,
      "숭": 3237,
      "숯": 3238,
      "숱": 3239,
      "숲": 3240,
      "숴": 3241,
      "쉐": 3242,
      "쉑": 3243,
      "쉔": 3244,
      "쉘": 3245,
      "쉬": 3246,
      "쉰": 3247,
      "쉴": 3248,
      "쉼": 3249,
      "쉽": 3250,
      "쉿": 3251,
      "슈": 3252,
      "슉": 3253,
      "슌": 3254,
      "슐": 3255,
      "슘": 3256,
      "슛": 3257,
      "슝": 3258,
      "스": 3259,
      "슥": 3260,
      "슨": 3261,
      "슬": 3262,
      "슭": 3263,
      "슴": 3264,
      "습": 3265,
      "슷": 3266,
      "승": 3267,
      "시": 3268,
      "식": 3269,
      "신": 3270,
      "싣": 3271,
      "실": 3272,
      "싫": 3273,
      "심": 3274,
      "십": 3275,
      "싯": 3276,
      "싱": 3277,
      "싶": 3278,
      "싸": 3279,
      "싹": 3280,
      "싼": 3281,
      "쌀": 3282,
      "쌈": 3283,
      "쌉": 3284,
      "쌌": 3285,
      "쌍": 3286,
      "쌓": 3287,
      "쌔": 3288,
      "쌕": 3289,
      "쌘": 3290,
      "쌤": 3291,
      "쌩": 3292,
      "쌰": 3293,
      "써": 3294,
      "썩": 3295,
      "썬": 3296,
      "썰": 3297,
      "썸": 3298,
      "썹": 3299,
      "썻": 3300,
      "썼": 3301,
      "썽": 3302,
      "쎄": 3303,
      "쎈": 3304,
      "쎌": 3305,
      "쏘": 3306,
      "쏙": 3307,
      "쏜": 3308,
      "쏟": 3309,
      "쏠": 3310,
      "쏨": 3311,
      "쏩": 3312,
      "쏭": 3313,
      "쏴": 3314,
      "쐈": 3315,
      "쐐": 3316,
      "쐬": 3317,
      "쐴": 3318,
      "쑈": 3319,
      "쑤": 3320,
      "쑥": 3321,
      "쑨": 3322,
      "쑹": 3323,
      "쒀": 3324,
      "쒸": 3325,
      "쓰": 3326,
      "쓱": 3327,
      "쓴": 3328,
      "쓸": 3329,
      "씀": 3330,
      "씁": 3331,
      "씌": 3332,
      "씐": 3333,
      "씨": 3334,
      "씩": 3335,
      "씬": 3336,
      "씰": 3337,
      "씸": 3338,
      "씹": 3339,
      "씻": 3340,
      "씽": 3341,
      "아": 3342,
      "악": 3343,
      "안": 3344,
      "앉": 3345,
      "않": 3346,
      "알": 3347,
      "앎": 3348,
      "앓": 3349,
      "암": 3350,
      "압": 3351,
      "앗": 3352,
      "았": 3353,
      "앙": 3354,
      "앜": 3355,
      "앞": 3356,
      "애": 3357,
      "액": 3358,
      "앤": 3359,
      "앨": 3360,
      "앰": 3361,
      "앱": 3362,
      "앳": 3363,
      "앴": 3364,
      "앵": 3365,
      "야": 3366,
      "약": 3367,
      "얀": 3368,
      "얄": 3369,
      "얇": 3370,
      "얌": 3371,
      "얍": 3372,
      "얏": 3373,
      "양": 3374,
      "얕": 3375,
      "얗": 3376,
      "얘": 3377,
      "얜": 3378,
      "어": 3379,
      "억": 3380,
      "언": 3381,
      "얹": 3382,
      "얻": 3383,
      "얼": 3384,
      "얽": 3385,
      "엄": 3386,
      "업": 3387,
      "없": 3388,
      "엇": 3389,
      "었": 3390,
      "엉": 3391,
      "엊": 3392,
      "엌": 3393,
      "엎": 3394,
      "에": 3395,
      "엑": 3396,
      "엔": 3397,
      "엘": 3398,
      "엠": 3399,
      "엡": 3400,
      "엣": 3401,
      "엥": 3402,
      "여": 3403,
      "역": 3404,
      "엮": 3405,
      "연": 3406,
      "열": 3407,
      "엷": 3408,
      "염": 3409,
      "엽": 3410,
      "엾": 3411,
      "엿": 3412,
      "였": 3413,
      "영": 3414,
      "옄": 3415,
      "옅": 3416,
      "옆": 3417,
      "옇": 3418,
      "예": 3419,
      "옌": 3420,
      "옐": 3421,
      "옙": 3422,
      "옛": 3423,
      "오": 3424,
      "옥": 3425,
      "온": 3426,
      "올": 3427,
      "옮": 3428,
      "옳": 3429,
      "옴": 3430,
      "옵": 3431,
      "옷": 3432,
      "옹": 3433,
      "옻": 3434,
      "와": 3435,
      "왁": 3436,
      "완": 3437,
      "왈": 3438,
      "왑": 3439,
      "왓": 3440,
      "왔": 3441,
      "왕": 3442,
      "왜": 3443,
      "왠": 3444,
      "왤": 3445,
      "외": 3446,
      "왼": 3447,
      "요": 3448,
      "욕": 3449,
      "욘": 3450,
      "욜": 3451,
      "욤": 3452,
      "욥": 3453,
      "욧": 3454,
      "용": 3455,
      "욬": 3456,
      "욯": 3457,
      "우": 3458,
      "욱": 3459,
      "운": 3460,
      "울": 3461,
      "움": 3462,
      "웁": 3463,
      "웃": 3464,
      "웅": 3465,
      "워": 3466,
      "웍": 3467,
      "원": 3468,
      "월": 3469,
      "웜": 3470,
      "웟": 3471,
      "웠": 3472,
      "웡": 3473,
      "웨": 3474,
      "웩": 3475,
      "웬": 3476,
      "웰": 3477,
      "웹": 3478,
      "웻": 3479,
      "위": 3480,
      "윅": 3481,
      "윈": 3482,
      "윌": 3483,
      "윔": 3484,
      "윕": 3485,
      "윗": 3486,
      "윙": 3487,
      "유": 3488,
      "육": 3489,
      "윤": 3490,
      "율": 3491,
      "윰": 3492,
      "윳": 3493,
      "융": 3494,
      "윷": 3495,
      "으": 3496,
      "윽": 3497,
      "은": 3498,
      "을": 3499,
      "읊": 3500,
      "음": 3501,
      "읍": 3502,
      "읏": 3503,
      "응": 3504,
      "읕": 3505,
      "의": 3506,
      "읭": 3507,
      "이": 3508,
      "익": 3509,
      "인": 3510,
      "일": 3511,
      "읽": 3512,
      "잃": 3513,
      "임": 3514,
      "입": 3515,
      "잇": 3516,
      "있": 3517,
      "잉": 3518,
      "잊": 3519,
      "잌": 3520,
      "잎": 3521,
      "자": 3522,
      "작": 3523,
      "잔": 3524,
      "잖": 3525,
      "잘": 3526,
      "잠": 3527,
      "잡": 3528,
      "잣": 3529,
      "잤": 3530,
      "장": 3531,
      "잦": 3532,
      "재": 3533,
      "잭": 3534,
      "잰": 3535,
      "잴": 3536,
      "잼": 3537,
      "잽": 3538,
      "잿": 3539,
      "쟀": 3540,
      "쟁": 3541,
      "쟈": 3542,
      "쟌": 3543,
      "쟎": 3544,
      "쟝": 3545,
      "쟤": 3546,
      "저": 3547,
      "적": 3548,
      "전": 3549,
      "절": 3550,
      "젊": 3551,
      "젋": 3552,
      "점": 3553,
      "접": 3554,
      "젓": 3555,
      "정": 3556,
      "젖": 3557,
      "제": 3558,
      "젝": 3559,
      "젠": 3560,
      "젤": 3561,
      "젬": 3562,
      "젭": 3563,
      "젯": 3564,
      "져": 3565,
      "젼": 3566,
      "졋": 3567,
      "졌": 3568,
      "졍": 3569,
      "조": 3570,
      "족": 3571,
      "존": 3572,
      "졸": 3573,
      "좀": 3574,
      "좁": 3575,
      "좃": 3576,
      "종": 3577,
      "좆": 3578,
      "좇": 3579,
      "좋": 3580,
      "좌": 3581,
      "좔": 3582,
      "좡": 3583,
      "죄": 3584,
      "죠": 3585,
      "죤": 3586,
      "죵": 3587,
      "주": 3588,
      "죽": 3589,
      "준": 3590,
      "줄": 3591,
      "줌": 3592,
      "줍": 3593,
      "줏": 3594,
      "중": 3595,
      "줘": 3596,
      "줫": 3597,
      "줬": 3598,
      "쥐": 3599,
      "쥑": 3600,
      "쥔": 3601,
      "쥘": 3602,
      "쥬": 3603,
      "쥰": 3604,
      "쥴": 3605,
      "즁": 3606,
      "즈": 3607,
      "즉": 3608,
      "즌": 3609,
      "즐": 3610,
      "즘": 3611,
      "즙": 3612,
      "증": 3613,
      "즤": 3614,
      "지": 3615,
      "직": 3616,
      "진": 3617,
      "질": 3618,
      "짊": 3619,
      "짐": 3620,
      "집": 3621,
      "짓": 3622,
      "징": 3623,
      "짖": 3624,
      "짘": 3625,
      "짙": 3626,
      "짚": 3627,
      "짜": 3628,
      "짝": 3629,
      "짠": 3630,
      "짢": 3631,
      "짤": 3632,
      "짧": 3633,
      "짬": 3634,
      "짭": 3635,
      "짰": 3636,
      "짱": 3637,
      "째": 3638,
      "짹": 3639,
      "쨈": 3640,
      "쨋": 3641,
      "쨌": 3642,
      "쨍": 3643,
      "쨔": 3644,
      "쨘": 3645,
      "쨩": 3646,
      "쨰": 3647,
      "쩌": 3648,
      "쩍": 3649,
      "쩐": 3650,
      "쩔": 3651,
      "쩜": 3652,
      "쩝": 3653,
      "쩡": 3654,
      "쩨": 3655,
      "쪄": 3656,
      "쪘": 3657,
      "쪙": 3658,
      "쪼": 3659,
      "쪽": 3660,
      "쫀": 3661,
      "쫄": 3662,
      "쫌": 3663,
      "쫑": 3664,
      "쫒": 3665,
      "쫓": 3666,
      "쫘": 3667,
      "쫙": 3668,
      "쬐": 3669,
      "쬬": 3670,
      "쭈": 3671,
      "쭉": 3672,
      "쭌": 3673,
      "쭐": 3674,
      "쭘": 3675,
      "쭙": 3676,
      "쭝": 3677,
      "쭤": 3678,
      "쮸": 3679,
      "쯔": 3680,
      "쯤": 3681,
      "쯧": 3682,
      "찌": 3683,
      "찍": 3684,
      "찐": 3685,
      "찔": 3686,
      "찜": 3687,
      "찝": 3688,
      "찡": 3689,
      "찢": 3690,
      "찧": 3691,
      "차": 3692,
      "착": 3693,
      "찬": 3694,
      "찮": 3695,
      "찰": 3696,
      "참": 3697,
      "찹": 3698,
      "찻": 3699,
      "찼": 3700,
      "창": 3701,
      "찾": 3702,
      "찿": 3703,
      "채": 3704,
      "책": 3705,
      "챈": 3706,
      "챌": 3707,
      "챔": 3708,
      "챕": 3709,
      "챗": 3710,
      "챘": 3711,
      "챙": 3712,
      "챠": 3713,
      "챡": 3714,
      "챤": 3715,
      "챦": 3716,
      "챱": 3717,
      "처": 3718,
      "척": 3719,
      "천": 3720,
      "철": 3721,
      "첨": 3722,
      "첩": 3723,
      "첫": 3724,
      "청": 3725,
      "체": 3726,
      "첵": 3727,
      "첸": 3728,
      "첼": 3729,
      "쳇": 3730,
      "쳐": 3731,
      "쳣": 3732,
      "쳤": 3733,
      "초": 3734,
      "촉": 3735,
      "촌": 3736,
      "촐": 3737,
      "촘": 3738,
      "촛": 3739,
      "총": 3740,
      "촤": 3741,
      "촥": 3742,
      "촨": 3743,
      "촬": 3744,
      "촵": 3745,
      "최": 3746,
      "쵝": 3747,
      "쵸": 3748,
      "추": 3749,
      "축": 3750,
      "춘": 3751,
      "출": 3752,
      "춤": 3753,
      "춥": 3754,
      "춧": 3755,
      "충": 3756,
      "춰": 3757,
      "췄": 3758,
      "췌": 3759,
      "취": 3760,
      "츄": 3761,
      "츈": 3762,
      "츌": 3763,
      "츠": 3764,
      "측": 3765,
      "츤": 3766,
      "츨": 3767,
      "츰": 3768,
      "층": 3769,
      "치": 3770,
      "칙": 3771,
      "친": 3772,
      "칠": 3773,
      "칡": 3774,
      "침": 3775,
      "칩": 3776,
      "칫": 3777,
      "칭": 3778,
      "카": 3779,
      "칵": 3780,
      "칸": 3781,
      "칼": 3782,
      "캄": 3783,
      "캅": 3784,
      "캇": 3785,
      "캉": 3786,
      "캐": 3787,
      "캔": 3788,
      "캘": 3789,
      "캠": 3790,
      "캡": 3791,
      "캣": 3792,
      "캥": 3793,
      "캬": 3794,
      "커": 3795,
      "컥": 3796,
      "컨": 3797,
      "컫": 3798,
      "컬": 3799,
      "컴": 3800,
      "컵": 3801,
      "컷": 3802,
      "컸": 3803,
      "컹": 3804,
      "케": 3805,
      "켁": 3806,
      "켄": 3807,
      "켈": 3808,
      "켐": 3809,
      "켓": 3810,
      "켜": 3811,
      "켠": 3812,
      "켤": 3813,
      "켯": 3814,
      "켰": 3815,
      "코": 3816,
      "콕": 3817,
      "콘": 3818,
      "콜": 3819,
      "콤": 3820,
      "콥": 3821,
      "콧": 3822,
      "콩": 3823,
      "콰": 3824,
      "콱": 3825,
      "콴": 3826,
      "콸": 3827,
      "쾅": 3828,
      "쾌": 3829,
      "쾨": 3830,
      "쾰": 3831,
      "쿄": 3832,
      "쿠": 3833,
      "쿡": 3834,
      "쿤": 3835,
      "쿨": 3836,
      "쿰": 3837,
      "쿱": 3838,
      "쿵": 3839,
      "쿼": 3840,
      "퀀": 3841,
      "퀄": 3842,
      "퀘": 3843,
      "퀴": 3844,
      "퀵": 3845,
      "퀸": 3846,
      "퀼": 3847,
      "큅": 3848,
      "큐": 3849,
      "큘": 3850,
      "크": 3851,
      "큭": 3852,
      "큰": 3853,
      "클": 3854,
      "큼": 3855,
      "큽": 3856,
      "킁": 3857,
      "키": 3858,
      "킥": 3859,
      "킨": 3860,
      "킬": 3861,
      "킴": 3862,
      "킵": 3863,
      "킷": 3864,
      "킹": 3865,
      "타": 3866,
      "탁": 3867,
      "탄": 3868,
      "탈": 3869,
      "탉": 3870,
      "탐": 3871,
      "탑": 3872,
      "탓": 3873,
      "탔": 3874,
      "탕": 3875,
      "태": 3876,
      "택": 3877,
      "탠": 3878,
      "탤": 3879,
      "탬": 3880,
      "탭": 3881,
      "탯": 3882,
      "탰": 3883,
      "탱": 3884,
      "터": 3885,
      "턱": 3886,
      "턴": 3887,
      "털": 3888,
      "텀": 3889,
      "텁": 3890,
      "텃": 3891,
      "텄": 3892,
      "텅": 3893,
      "테": 3894,
      "텍": 3895,
      "텐": 3896,
      "텔": 3897,
      "템": 3898,
      "텝": 3899,
      "텟": 3900,
      "텨": 3901,
      "텼": 3902,
      "톈": 3903,
      "토": 3904,
      "톡": 3905,
      "톤": 3906,
      "톨": 3907,
      "톰": 3908,
      "톱": 3909,
      "톳": 3910,
      "통": 3911,
      "퇴": 3912,
      "툇": 3913,
      "투": 3914,
      "툭": 3915,
      "툰": 3916,
      "툴": 3917,
      "툼": 3918,
      "툽": 3919,
      "퉁": 3920,
      "퉈": 3921,
      "퉤": 3922,
      "튀": 3923,
      "튄": 3924,
      "튈": 3925,
      "튕": 3926,
      "튜": 3927,
      "튠": 3928,
      "튤": 3929,
      "튬": 3930,
      "튭": 3931,
      "트": 3932,
      "특": 3933,
      "튼": 3934,
      "튿": 3935,
      "틀": 3936,
      "틈": 3937,
      "틋": 3938,
      "틔": 3939,
      "티": 3940,
      "틱": 3941,
      "틴": 3942,
      "틸": 3943,
      "팀": 3944,
      "팁": 3945,
      "팅": 3946,
      "파": 3947,
      "팍": 3948,
      "팎": 3949,
      "판": 3950,
      "팔": 3951,
      "팜": 3952,
      "팝": 3953,
      "팟": 3954,
      "팠": 3955,
      "팡": 3956,
      "팥": 3957,
      "패": 3958,
      "팩": 3959,
      "팬": 3960,
      "팰": 3961,
      "팸": 3962,
      "팹": 3963,
      "팻": 3964,
      "팽": 3965,
      "퍼": 3966,
      "퍽": 3967,
      "펀": 3968,
      "펄": 3969,
      "펌": 3970,
      "펍": 3971,
      "펐": 3972,
      "펑": 3973,
      "페": 3974,
      "펙": 3975,
      "펜": 3976,
      "펠": 3977,
      "펨": 3978,
      "펩": 3979,
      "펫": 3980,
      "펭": 3981,
      "펴": 3982,
      "편": 3983,
      "펼": 3984,
      "폄": 3985,
      "폈": 3986,
      "평": 3987,
      "폐": 3988,
      "포": 3989,
      "폭": 3990,
      "폰": 3991,
      "폴": 3992,
      "폼": 3993,
      "폽": 3994,
      "폿": 3995,
      "퐁": 3996,
      "퐈": 3997,
      "퐉": 3998,
      "퐝": 3999,
      "푀": 4000,
      "표": 4001,
      "푠": 4002,
      "푯": 4003,
      "푸": 4004,
      "푹": 4005,
      "푼": 4006,
      "풀": 4007,
      "품": 4008,
      "풉": 4009,
      "풋": 4010,
      "풍": 4011,
      "퓌": 4012,
      "퓨": 4013,
      "퓰": 4014,
      "퓸": 4015,
      "프": 4016,
      "픈": 4017,
      "플": 4018,
      "픔": 4019,
      "픕": 4020,
      "피": 4021,
      "픽": 4022,
      "핀": 4023,
      "필": 4024,
      "핌": 4025,
      "핍": 4026,
      "핏": 4027,
      "핑": 4028,
      "하": 4029,
      "학": 4030,
      "한": 4031,
      "할": 4032,
      "핥": 4033,
      "함": 4034,
      "합": 4035,
      "핫": 4036,
      "항": 4037,
      "핳": 4038,
      "해": 4039,
      "핵": 4040,
      "핸": 4041,
      "핼": 4042,
      "햄": 4043,
      "햅": 4044,
      "햇": 4045,
      "했": 4046,
      "행": 4047,
      "햐": 4048,
      "향": 4049,
      "헀": 4050,
      "허": 4051,
      "헉": 4052,
      "헌": 4053,
      "헐": 4054,
      "험": 4055,
      "헙": 4056,
      "헛": 4057,
      "헝": 4058,
      "헣": 4059,
      "헤": 4060,
      "헥": 4061,
      "헨": 4062,
      "헬": 4063,
      "헴": 4064,
      "헵": 4065,
      "헷": 4066,
      "헹": 4067,
      "헿": 4068,
      "혀": 4069,
      "혁": 4070,
      "현": 4071,
      "혈": 4072,
      "혐": 4073,
      "협": 4074,
      "혓": 4075,
      "혔": 4076,
      "형": 4077,
      "혜": 4078,
      "호": 4079,
      "혹": 4080,
      "혼": 4081,
      "홀": 4082,
      "홈": 4083,
      "홉": 4084,
      "홋": 4085,
      "홍": 4086,
      "홑": 4087,
      "화": 4088,
      "확": 4089,
      "환": 4090,
      "활": 4091,
      "홧": 4092,
      "황": 4093,
      "횃": 4094,
      "회": 4095,
      "획": 4096,
      "횟": 4097,
      "횡": 4098,
      "효": 4099,
      "횽": 4100,
      "후": 4101,
      "훅": 4102,
      "훈": 4103,
      "훌": 4104,
      "훑": 4105,
      "훔": 4106,
      "훗": 4107,
      "훙": 4108,
      "훠": 4109,
      "훤": 4110,
      "훨": 4111,
      "훼": 4112,
      "휀": 4113,
      "휑": 4114,
      "휘": 4115,
      "휙": 4116,
      "휜": 4117,
      "휠": 4118,
      "휨": 4119,
      "휩": 4120,
      "휴": 4121,
      "휼": 4122,
      "흄": 4123,
      "흉": 4124,
      "흐": 4125,
      "흑": 4126,
      "흔": 4127,
      "흘": 4128,
      "흙": 4129,
      "흠": 4130,
      "흡": 4131,
      "흣": 4132,
      "흥": 4133,
      "흩": 4134,
      "희": 4135,
      "흰": 4136,
      "히": 4137,
      "힉": 4138,
      "힌": 4139,
      "힐": 4140,
      "힘": 4141,
      "힙": 4142,
      "힛": 4143,
      "힝": 4144,
      "힣": 4145,
      "︎": 4146,
      "️": 4147,
      "𐌅": 4148,
      "𐨛": 4149,
      "🌈": 4150,
      "🌟": 4151,
      "🌱": 4152,
      "🌷": 4153,
      "🌸": 4154,
      "🌹": 4155,
      "🌼": 4156,
      "🌿": 4157,
      "🍀": 4158,
      "🍃": 4159,
      "🍊": 4160,
      "🍎": 4161,
      "🍒": 4162,
      "🍓": 4163,
      "🎀": 4164,
      "🎁": 4165,
      "🎄": 4166,
      "🎈": 4167,
      "🎉": 4168,
      "🎵": 4169,
      "🎶": 4170,
      "🏃": 4171,
      "🏻": 4172,
      "🏼": 4173,
      "🐕": 4174,
      "🐶": 4175,
      "🐷": 4176,
      "👀": 4177,
      "👆": 4178,
      "👇": 4179,
      "👉": 4180,
      "👋": 4181,
      "👌": 4182,
      "👍": 4183,
      "👏": 4184,
      "👩": 4185,
      "💐": 4186,
      "💓": 4187,
      "💕": 4188,
      "💖": 4189,
      "💗": 4190,
      "💘": 4191,
      "💙": 4192,
      "💚": 4193,
      "💛": 4194,
      "💜": 4195,
      "💝": 4196,
      "💞": 4197,
      "💟": 4198,
      "💡": 4199,
      "💥": 4200,
      "💦": 4201,
      "💪": 4202,
      "💫": 4203,
      "📌": 4204,
      "📍": 4205,
      "📚": 4206,
      "📝": 4207,
      "📞": 4208,
      "📸": 4209,
      "🔥": 4210,
      "🔸": 4211,
      "🔹": 4212,
      "🔻": 4213,
      "🔽": 4214,
      "🖤": 4215,
      "😀": 4216,
      "😁": 4217,
      "😂": 4218,
      "😃": 4219,
      "😄": 4220,
      "😅": 4221,
      "😆": 4222,
      "😇": 4223,
      "😉": 4224,
      "😊": 4225,
      "😋": 4226,
      "😌": 4227,
      "😍": 4228,
      "😎": 4229,
      "😏": 4230,
      "😘": 4231,
      "😚": 4232,
      "😝": 4233,
      "😡": 4234,
      "😢": 4235,
      "😥": 4236,
      "😭": 4237,
      "😱": 4238,
      "😳": 4239,
      "🙂": 4240,
      "🙃": 4241,
      "🙄": 4242,
      "🙆": 4243,
      "🙇": 4244,
      "🙈": 4245,
      "🙊": 4246,
      "🙋": 4247,
      "🙌": 4248,
      "🙏": 4249,
      "🤍": 4250,
      "🤎": 4251,
      "🤔": 4252,
      "🤗": 4253,
      "🤣": 4254,
      "🤤": 4255,
      "🤦": 4256,
      "🤩": 4257,
      "🤭": 4258,
      "🥰": 4259,
      "🥲": 4260,
      "🥳": 4261,
      "🥺": 4262,
      "🧡": 4263,
      "##등": 4264,
      "##칸": 4265,
      "##현": 4266,
      "##진": 4267,
      "##연": 4268,
      "##봉": 4269,
      "##な": 4270,
      "##ん": 4271,
      "##だ": 4272,
      "##っ": 4273,
      "##け": 4274,
      "##업": 4275,
      "##체": 4276,
      "##와": 4277,
      "##로": 4278,
      "##몬": 4279,
      "##기": 4280,
      "##장": 4281,
      "##c": 4282,
      "##t": 4283,
      "##v": 4284,
      "##공": 4285,
      "##초": 4286,
      "##까": 4287,
      "##지": 4288,
      "##의": 4289,
      "##불": 4290,
      "##가": 4291,
      "##해": 4292,
      "##a": 4293,
      "##r": 4294,
      "##e": 4295,
      "##k": 4296,
      "##i": 4297,
      "##렇": 4298,
      "##게": 4299,
      "##들": 4300,
      "##전": 4301,
      "##과": 4302,
      "##동": 4303,
      "##테": 4304,
      "##라": 4305,
      "##타": 4306,
      "##시": 4307,
      "##히": 4308,
      "##토": 4309,
      "##리": 4310,
      "##데": 4311,
      "##오": 4312,
      "##페": 4313,
      "##하": 4314,
      "##우": 4315,
      "##스": 4316,
      "##6": 4317,
      "##5": 4318,
      "##Q": 4319,
      "##x": 4320,
      "##l": 4321,
      "##9": 4322,
      "##7": 4323,
      "##아": 4324,
      "##면": 4325,
      "##럼": 4326,
      "##버": 4327,
      "##그": 4328,
      "##u": 4329,
      "##s": 4330,
      "##o": 4331,
      "##n": 4332,
      "##N": 4333,
      "##키": 4334,
      "##E": 4335,
      "##W": 4336,
      "##B": 4337,
      "##S": 4338,
      "##👍": 4339,
      "##락": 4340,
      "##조": 4341,
      "##화": 4342,
      "##0": 4343,
      "##1": 4344,
      "##∼": 4345,
      "##2": 4346,
      "##4": 4347,
      "##m": 4348,
      "##²": 4349,
      "##규": 4350,
      "##련": 4351,
      "##영": 4352,
      "##봅": 4353,
      "##니": 4354,
      "##다": 4355,
      "##R": 4356,
      "##I": 4357,
      "##C": 4358,
      "##이": 4359,
      "##천": 4360,
      "##쿠": 4361,
      "##보": 4362,
      "##자": 4363,
      "##며": 4364,
      "##문": 4365,
      "##답": 4366,
      "##마": 4367,
      "##빙": 4368,
      "##소": 4369,
      "##코": 4370,
      "##는": 4371,
      "##접": 4372,
      "##투": 4373,
      "##강": 4374,
      "##검": 4375,
      "##실": 4376,
      "##에": 4377,
      "##서": 4378,
      "##재": 4379,
      "##린": 4380,
      "##닭": 4381,
      "##특": 4382,
      "##수": 4383,
      "##부": 4384,
      "##위": 4385,
      "##점": 4386,
      "##혼": 4387,
      "##은": 4388,
      "##멀": 4389,
      "##즘": 4390,
      "##으": 4391,
      "##폭": 4392,
      "##상": 4393,
      "##좌": 4394,
      "##욕": 4395,
      "##플": 4396,
      "##처": 4397,
      "##돌": 4398,
      "##양": 4399,
      "##균": 4400,
      "##송": 4401,
      "##파": 4402,
      "##유": 4403,
      "##치": 4404,
      "##경": 4405,
      "##g": 4406,
      "##y": 4407,
      "##발": 4408,
      "##é": 4409,
      "##p": 4410,
      "##사": 4411,
      "##쓰": 4412,
      "##속": 4413,
      "##만": 4414,
      "##했": 4415,
      "##네": 4416,
      "##요": 4417,
      "##h": 4418,
      "##d": 4419,
      "##f": 4420,
      "##엘": 4421,
      "##림": 4422,
      "##군": 4423,
      "##고": 4424,
      "##구": 4425,
      "##합": 4426,
      "##회": 4427,
      "##원": 4428,
      "##쳐": 4429,
      "##뇰": 4430,
      "##광": 4431,
      "##순": 4432,
      "##선": 4433,
      "##대": 4434,
      "##외": 4435,
      "##간": 4436,
      "##큼": 4437,
      "##궤": 4438,
      "##도": 4439,
      "##호": 4440,
      "##암": 4441,
      "##증": 4442,
      "##T": 4443,
      "##인": 4444,
      "##트": 4445,
      "##바": 4446,
      "##르": 4447,
      "##법": 4448,
      "##제": 4449,
      "##청": 4450,
      "##주": 4451,
      "##야": 4452,
      "##카": 4453,
      "##춧": 4454,
      "##쥬": 4455,
      "##러": 4456,
      "##쉬": 4457,
      "##를": 4458,
      "##새": 4459,
      "##료": 4460,
      "##액": 4461,
      "##비": 4462,
      "##루": 4463,
      "##나": 4464,
      "##턴": 4465,
      "##빠": 4466,
      "##랑": 4467,
      "##w": 4468,
      "##ㄴ": 4469,
      "##약": 4470,
      "##운": 4471,
      "##3": 4472,
      "##어": 4473,
      "##ㅡ": 4474,
      "##식": 4475,
      "##당": 4476,
      "##국": 4477,
      "##프": 4478,
      "##머": 4479,
      "##세": 4480,
      "##융": 4481,
      "##모": 4482,
      "##너": 4483,
      "##권": 4484,
      "##ㄹ": 4485,
      "##람": 4486,
      "##신": 4487,
      "##딸": 4488,
      "##j": 4489,
      "##헤": 4490,
      "##포": 4491,
      "##롯": 4492,
      "##몰": 4493,
      "##학": 4494,
      "##생": 4495,
      "##였": 4496,
      "##습": 4497,
      "##겔": 4498,
      "##추": 4499,
      "##여": 4500,
      "##왕": 4501,
      "##용": 4502,
      "##막": 4503,
      "##힘": 4504,
      "##려": 4505,
      "##놓": 4506,
      "##거": 4507,
      "##든": 4508,
      "##런": 4509,
      "##크": 4510,
      "##산": 4511,
      "##겠": 4512,
      "##댜": 4513,
      "##죠": 4514,
      "##착": 4515,
      "##한": 4516,
      "##염": 4517,
      "##색": 4518,
      "##た": 4519,
      "##め": 4520,
      "##の": 4521,
      "##バ": 4522,
      "##イ": 4523,
      "##ブ": 4524,
      "##ル": 4525,
      "##직": 4526,
      "##성": 4527,
      "##8": 4528,
      "##い": 4529,
      "##ほ": 4530,
      "##ど": 4531,
      "##く": 4532,
      "##さ": 4533,
      "##춘": 4534,
      "##샷": 4535,
      "##판": 4536,
      "##매": 4537,
      "##ㆍ": 4538,
      "##뇽": 4539,
      "##펫": 4540,
      "##커": 4541,
      "##が": 4542,
      "##링": 4543,
      "##복": 4544,
      "##단": 4545,
      "##냉": 4546,
      "##예": 4547,
      "##칭": 4548,
      "##탭": 4549,
      "##칼": 4550,
      "##슘": 4551,
      "##탄": 4552,
      "##을": 4553,
      "##A": 4554,
      "##G": 4555,
      "##책": 4556,
      "##쪽": 4557,
      "##건": 4558,
      "##팬": 4559,
      "##싸": 4560,
      "##텔": 4561,
      "##톤": 4562,
      "##블": 4563,
      "##랙": 4564,
      "##완": 4565,
      "##및": 4566,
      "##션": 4567,
      "##쟁": 4568,
      "##력": 4569,
      "##패": 4570,
      "##남": 4571,
      "##째": 4572,
      "##솔": 4573,
      "##명": 4574,
      "##활": 4575,
      "##れ": 4576,
      "##ば": 4577,
      "##후": 4578,
      "##닥": 4579,
      "##변": 4580,
      "##렉": 4581,
      "##흥": 4582,
      "##중": 4583,
      "##교": 4584,
      "##환": 4585,
      "##L": 4586,
      "##래": 4587,
      "##솥": 4588,
      "##밥": 4589,
      "##볼": 4590,
      "##름": 4591,
      "##벨": 4592,
      "##받": 4593,
      "##방": 4594,
      "##닌": 4595,
      "##종": 4596,
      "##론": 4597,
      "##샤": 4598,
      "##노": 4599,
      "##풀": 4600,
      "##립": 4601,
      "##P": 4602,
      "##X": 4603,
      "##설": 4604,
      "##준": 4605,
      "##일": 4606,
      "##🥰": 4607,
      "##웅": 4608,
      "##브": 4609,
      "##랜": 4610,
      "##드": 4611,
      "##평": 4612,
      "##관": 4613,
      "##내": 4614,
      "##릴": 4615,
      "##것": 4616,
      "##같": 4617,
      "##벌": 4618,
      "##맨": 4619,
      "##님": 4620,
      "##낫": 4621,
      "##져": 4622,
      "##갈": 4623,
      "##입": 4624,
      "##움": 4625,
      "##배": 4626,
      "##티": 4627,
      "##콘": 4628,
      "##F": 4629,
      "##M": 4630,
      "##O": 4631,
      "##역": 4632,
      "##분": 4633,
      "##미": 4634,
      "##케": 4635,
      "##더": 4636,
      "##십": 4637,
      "##육": 4638,
      "##울": 4639,
      "##빵": 4640,
      "##굽": 4641,
      "##궁": 4642,
      "##맘": 4643,
      "##랍": 4644,
      "##K": 4645,
      "##개": 4646,
      "##D": 4647,
      "##베": 4648,
      "##익": 4649,
      "##핸": 4650,
      "##폰": 4651,
      "##애": 4652,
      "##즈": 4653,
      "##펌": 4654,
      "##z": 4655,
      "##편": 4656,
      "##터": 4657,
      "##b": 4658,
      "##퓌": 4659,
      "##저": 4660,
      "##슬": 4661,
      "##짐": 4662,
      "##못": 4663,
      "##결": 4664,
      "##워": 4665,
      "##벽": 4666,
      "##줄": 4667,
      "##눈": 4668,
      "##차": 4669,
      "##팔": 4670,
      "##샘": 4671,
      "##낙": 4672,
      "##콧": 4673,
      "##롬": 4674,
      "##축": 4675,
      "##함": 4676,
      "##좀": 4677,
      "##적": 4678,
      "##ㅜ": 4679,
      "##ㅠ": 4680,
      "##J": 4681,
      "##㎜": 4682,
      "##란": 4683,
      "##승": 4684,
      "##ョ": 4685,
      "##ク": 4686,
      "##피": 4687,
      "##었": 4688,
      "##디": 4689,
      "##삼": 4690,
      "##쭈": 4691,
      "##형": 4692,
      "##망": 4693,
      "##켰": 4694,
      "##걱": 4695,
      "##정": 4696,
      "##됩": 4697,
      "##а": 4698,
      "##ц": 4699,
      "##у": 4700,
      "##к": 4701,
      "##в": 4702,
      "##되": 4703,
      "##참": 4704,
      "##충": 4705,
      "##잡": 4706,
      "##즐": 4707,
      "##킨": 4708,
      "##놀": 4709,
      "##출": 4710,
      "##물": 4711,
      "##먼": 4712,
      "##임": 4713,
      "##메": 4714,
      "##행": 4715,
      "##렸": 4716,
      "##격": 4717,
      "##혁": 4718,
      "##존": 4719,
      "##뤼": 4720,
      "##된": 4721,
      "##할": 4722,
      "##근": 4723,
      "##も": 4724,
      "##ち": 4725,
      "##ろ": 4726,
      "##글": 4727,
      "##레": 4728,
      "##핑": 4729,
      "##반": 4730,
      "##딘": 4731,
      "##험": 4732,
      "##맥": 4733,
      "##잇": 4734,
      "##혜": 4735,
      "##표": 4736,
      "##징": 4737,
      "##말": 4738,
      "##안": 4739,
      "##팀": 4740,
      "##뿐": 4741,
      "##달": 4742,
      "##콤": 4743,
      "##귤": 4744,
      "##H": 4745,
      "##갖": 4746,
      "##줫": 4747,
      "##뎅": 4748,
      "##령": 4749,
      "##V": 4750,
      "##널": 4751,
      "##댱": 4752,
      "##맛": 4753,
      "##있": 4754,
      "##엇": 4755,
      "##롸": 4756,
      "##혈": 4757,
      "##쉐": 4758,
      "##품": 4759,
      "##집": 4760,
      "##폼": 4761,
      "##무": 4762,
      "##협": 4763,
      "##채": 4764,
      "##작": 4765,
      "##던": 4766,
      "##젠": 4767,
      "##쿄": 4768,
      "##렀": 4769,
      "##겅": 4770,
      "##닷": 4771,
      "##컴": 4772,
      "##웍": 4773,
      "##옵": 4774,
      "##빈": 4775,
      "##햄": 4776,
      "##넷": 4777,
      "##족": 4778,
      "##질": 4779,
      "##술": 4780,
      "##U": 4781,
      "##계": 4782,
      "##허": 4783,
      "##밍": 4784,
      "##엑": 4785,
      "##σ": 4786,
      "##χ": 4787,
      "##υ": 4788,
      "##ρ": 4789,
      "##ι": 4790,
      "##μ": 4791,
      "##ο": 4792,
      "##ς": 4793,
      "##목": 4794,
      "##언": 4795,
      "##번": 4796,
      "##겟": 4797,
      "##총": 4798,
      "##훼": 4799,
      "##량": 4800,
      "##톰": 4801,
      "##츠": 4802,
      "##팝": 4803,
      "##웰": 4804,
      "##텍": 4805,
      "##㈜": 4806,
      "##됨": 4807,
      "##앞": 4808,
      "##억": 4809,
      "##때": 4810,
      "##본": 4811,
      "##쑤": 4812,
      "##날": 4813,
      "##р": 4814,
      "##е": 4815,
      "##з": 4816,
      "##л": 4817,
      "##с": 4818,
      "##я": 4819,
      "##㏊": 4820,
      "##금": 4821,
      "##찜": 4822,
      "##살": 4823,
      "##태": 4824,
      "##뿔": 4825,
      "##촌": 4826,
      "##휴": 4827,
      "##감": 4828,
      "##록": 4829,
      "##톡": 4830,
      "##뷰": 4831,
      "##맞": 4832,
      "##찌": 4833,
      "##끄": 4834,
      "##뜨": 4835,
      "##ộ": 4836,
      "##졌": 4837,
      "##측": 4838,
      "##난": 4839,
      "##칙": 4840,
      "##별": 4841,
      "##닝": 4842,
      "##뉴": 4843,
      "##겨": 4844,
      "##백": 4845,
      "##께": 4846,
      "##악": 4847,
      "##꽈": 4848,
      "##앤": 4849,
      "##퇴": 4850,
      "##능": 4851,
      "##Z": 4852,
      "##챠": 4853,
      "##굴": 4854,
      "##릎": 4855,
      "##겐": 4856,
      "##쁘": 4857,
      "##띠": 4858,
      "##친": 4859,
      "##창": 4860,
      "##엽": 4861,
      "##わ": 4862,
      "##で": 4863,
      "##す": 4864,
      "##취": 4865,
      "##섯": 4866,
      "##알": 4867,
      "##т": 4868,
      "##ь": 4869,
      "##н": 4870,
      "##ы": 4871,
      "##납": 4872,
      "##확": 4873,
      "##°": 4874,
      "##q": 4875,
      "##릭": 4876,
      "##렘": 4877,
      "##석": 4878,
      "##ㅎ": 4879,
      "##ㅇ": 4880,
      "##ē": 4881,
      "##è": 4882,
      "##밸": 4883,
      "##민": 4884,
      "##클": 4885,
      "##렌": 4886,
      "##룡": 4887,
      "##웨": 4888,
      "##냥": 4889,
      "##철": 4890,
      "##척": 4891,
      "##손": 4892,
      "##껏": 4893,
      "##킬": 4894,
      "##ィ": 4895,
      "##ン": 4896,
      "##グ": 4897,
      "##フ": 4898,
      "##ォ": 4899,
      "##ー": 4900,
      "##ト": 4901,
      "##レ": 4902,
      "##ス": 4903,
      "##퍼": 4904,
      "##릿": 4905,
      "##て": 4906,
      "##こ": 4907,
      "##は": 4908,
      "##월": 4909,
      "##황": 4910,
      "##틱": 4911,
      "##텐": 4912,
      "##씨": 4913,
      "##떡": 4914,
      "##ó": 4915,
      "##쟈": 4916,
      "##항": 4917,
      "##펜": 4918,
      "##랴": 4919,
      "##캐": 4920,
      "##팩": 4921,
      "##첸": 4922,
      "##잘": 4923,
      "##셔": 4924,
      "##씹": 4925,
      "##큰": 4926,
      "##렁": 4927,
      "##봐": 4928,
      "##땅": 4929,
      "##읍": 4930,
      "##셜": 4931,
      "##딩": 4932,
      "##향": 4933,
      "##율": 4934,
      "##끼": 4935,
      "##얼": 4936,
      "##젼": 4937,
      "##른": 4938,
      "##길": 4939,
      "##틸": 4940,
      "##롤": 4941,
      "##온": 4942,
      "##륨": 4943,
      "##누": 4944,
      "##팅": 4945,
      "##견": 4946,
      "##례": 4947,
      "##꽃": 4948,
      "##깨": 4949,
      "##폐": 4950,
      "##츄": 4951,
      "##럴": 4952,
      "##슈": 4953,
      "##홍": 4954,
      "##벳": 4955,
      "##끔": 4956,
      "##콩": 4957,
      "##잠": 4958,
      "##박": 4959,
      "##얏": 4960,
      "##골": 4961,
      "##곰": 4962,
      "##절": 4963,
      "##꺼": 4964,
      "##띵": 4965,
      "##앨": 4966,
      "##싱": 4967,
      "##심": 4968,
      "##듀": 4969,
      "##쥐": 4970,
      "##김": 4971,
      "##️": 4972,
      "##멕": 4973,
      "##틴": 4974,
      "##à": 4975,
      "##두": 4976,
      "##겁": 4977,
      "##곡": 4978,
      "##죽": 4979,
      "##셨": 4980,
      "##썰": 4981,
      "##쏘": 4982,
      "##ロ": 4983,
      "##ジ": 4984,
      "##류": 4985,
      "##͡": 4986,
      "##급": 4987,
      "##걸": 4988,
      "##😍": 4989,
      "##병": 4990,
      "##씩": 4991,
      "##콜": 4992,
      "##택": 4993,
      "##음": 4994,
      "##멤": 4995,
      "##룸": 4996,
      "##샬": 4997,
      "##볍": 4998,
      "##ָ": 4999,
      "##א": 5000,
      "##ל": 5001,
      "##써": 5002,
      "##엠": 5003,
      "##쩌": 5004,
      "##맙": 5005,
      "##혐": 5006,
      "##됐": 5007,
      "##엔": 5008,
      "##슨": 5009,
      "##쁜": 5010,
      "##열": 5011,
      "##궈": 5012,
      "##흐": 5013,
      "##깔": 5014,
      "##통": 5015,
      "##꺠": 5016,
      "##뽕": 5017,
      "##밖": 5018,
      "##년": 5019,
      "##쾌": 5020,
      "##섬": 5021,
      "##랫": 5022,
      "##닉": 5023,
      "##먹": 5024,
      "##슴": 5025,
      "##붉": 5026,
      "##췄": 5027,
      "##봇": 5028,
      "##ッ": 5029,
      "##サ": 5030,
      "##둔": 5031,
      "##갤": 5032,
      "##럭": 5033,
      "##툼": 5034,
      "##곤": 5035,
      "##필": 5036,
      "##딤": 5037,
      "##좋": 5038,
      "##념": 5039,
      "##논": 5040,
      "##짱": 5041,
      "##낼": 5042,
      "##긴": 5043,
      "##륜": 5044,
      "##응": 5045,
      "##욤": 5046,
      "##풍": 5047,
      "##낸": 5048,
      "##범": 5049,
      "##찰": 5050,
      "##탈": 5051,
      "##꾸": 5052,
      "##얄": 5053,
      "##う": 5054,
      "##と": 5055,
      "##독": 5056,
      "##젤": 5057,
      "##털": 5058,
      "##앙": 5059,
      "##떼": 5060,
      "##έ": 5061,
      "##γ": 5062,
      "##α": 5063,
      "##녕": 5064,
      "##롱": 5065,
      "##ラ": 5066,
      "##プ": 5067,
      "##お": 5068,
      "##각": 5069,
      "##겪": 5070,
      "##컷": 5071,
      "##쭌": 5072,
      "##❤": 5073,
      "##싶": 5074,
      "##뻐": 5075,
      "##꼬": 5076,
      "##탐": 5077,
      "##チ": 5078,
      "##ュ": 5079,
      "##빛": 5080,
      "##펀": 5081,
      "##괴": 5082,
      "##ㅋ": 5083,
      "##꽤": 5084,
      "##템": 5085,
      "##킹": 5086,
      "##값": 5087,
      "##졸": 5088,
      "##듯": 5089,
      "##맵": 5090,
      "##센": 5091,
      "##о": 5092,
      "##ч": 5093,
      "##북": 5094,
      "##♥": 5095,
      "##묵": 5096,
      "##냐": 5097,
      "##밌": 5098,
      "##뚝": 5099,
      "##ă": 5100,
      "##â": 5101,
      "##묘": 5102,
      "##릅": 5103,
      "##닫": 5104,
      "##푸": 5105,
      "##즙": 5106,
      "##룩": 5107,
      "##잔": 5108,
      "##Y": 5109,
      "##극": 5110,
      "##봤": 5111,
      "##옥": 5112,
      "##빌": 5113,
      "##랩": 5114,
      "##펠": 5115,
      "##짜": 5116,
      "##났": 5117,
      "##럽": 5118,
      "##압": 5119,
      "##븐": 5120,
      "##に": 5121,
      "##ゅ": 5122,
      "##ム": 5123,
      "##☆": 5124,
      "##덕": 5125,
      "##헬": 5126,
      "##삭": 5127,
      "##큐": 5128,
      "##ら": 5129,
      "##ぬ": 5130,
      "##꿔": 5131,
      "##줘": 5132,
      "##켜": 5133,
      "##졍": 5134,
      "##올": 5135,
      "##걀": 5136,
      "##옷": 5137,
      "##롭": 5138,
      "##릉": 5139,
      "##밤": 5140,
      "##♡": 5141,
      "##켐": 5142,
      "##갑": 5143,
      "##뺑": 5144,
      "##녁": 5145,
      "##힌": 5146,
      "##담": 5147,
      "##뿍": 5148,
      "##빽": 5149,
      "##삐": 5150,
      "##뢰": 5151,
      "##층": 5152,
      "##칠": 5153,
      "##ぎ": 5154,
      "##る": 5155,
      "##よ": 5156,
      "##あ": 5157,
      "##り": 5158,
      "##ま": 5159,
      "##せ": 5160,
      "##델": 5161,
      "##윈": 5162,
      "##퀴": 5163,
      "##팡": 5164,
      "##헌": 5165,
      "##샐": 5166,
      "##웠": 5167,
      "##넘": 5168,
      "##г": 5169,
      "##д": 5170,
      "##뼈": 5171,
      "##꿈": 5172,
      "##♪": 5173,
      "##첨": 5174,
      "##줌": 5175,
      "##펑": 5176,
      "##뇨": 5177,
      "##픽": 5178,
      "##농": 5179,
      "##옌": 5180,
      "##뚱": 5181,
      "##ا": 5182,
      "##م": 5183,
      "##ت": 5184,
      "##멘": 5185,
      "##퓨": 5186,
      "##ㅁ": 5187,
      "##ㅊ": 5188,
      "##み": 5189,
      "##뮤": 5190,
      "##웃": 5191,
      "##않": 5192,
      "##따": 5193,
      "##캔": 5194,
      "##침": 5195,
      "##✌": 5196,
      "##뎈": 5197,
      "##걷": 5198,
      "##혹": 5199,
      "##겼": 5200,
      "##붙": 5201,
      "##숙": 5202,
      "##삶": 5203,
      "##랐": 5204,
      "##튬": 5205,
      "##킷": 5206,
      "##잼": 5207,
      "##잉": 5208,
      "##뚫": 5209,
      "##🤩": 5210,
      "##쳤": 5211,
      "##탑": 5212,
      "##낚": 5213,
      "##쉽": 5214,
      "##곽": 5215,
      "##컨": 5216,
      "##킥": 5217,
      "##눕": 5218,
      "##싼": 5219,
      "##곳": 5220,
      "##랄": 5221,
      "##и": 5222,
      "##낵": 5223,
      "##뒀": 5224,
      "##へ": 5225,
      "##잎": 5226,
      "##탁": 5227,
      "##녀": 5228,
      "##촬": 5229,
      "##껴": 5230,
      "##왔": 5231,
      "##굿": 5232,
      "##또": 5233,
      "##왁": 5234,
      "##ā": 5235,
      "##ī": 5236,
      "##꼼": 5237,
      "##짝": 5238,
      "##헣": 5239,
      "##ə": 5240,
      "##😭": 5241,
      "##므": 5242,
      "##し": 5243,
      "##틋": 5244,
      "##🔥": 5245,
      "##밀": 5246,
      "##튀": 5247,
      "##😡": 5248,
      "##カ": 5249,
      "##エ": 5250,
      "##뽈": 5251,
      "##ʔ": 5252,
      "##둥": 5253,
      "##찮": 5254,
      "##뽀": 5255,
      "##ㅍ": 5256,
      "##돈": 5257,
      "##엄": 5258,
      "##ä": 5259,
      "##힐": 5260,
      "##앗": 5261,
      "##п": 5262,
      "##ㅓ": 5263,
      "##떻": 5264,
      "##얘": 5265,
      "##갬": 5266,
      "##흘": 5267,
      "##똥": 5268,
      "##츈": 5269,
      "##ヴ": 5270,
      "##ェ": 5271,
      "##ⓐ": 5272,
      "##갓": 5273,
      "##녘": 5274,
      "##느": 5275,
      "##맷": 5276,
      "##았": 5277,
      "##쪼": 5278,
      "##끌": 5279,
      "##놨": 5280,
      "##렐": 5281,
      "##쌍": 5282,
      "##녹": 5283,
      "##앱": 5284,
      "##돼": 5285,
      "##펍": 5286,
      "##없": 5287,
      "##△": 5288,
      "##희": 5289,
      "##シ": 5290,
      "##◈": 5291,
      "##┃": 5292,
      "##눙": 5293,
      "##む": 5294,
      "##깅": 5295,
      "##뺴": 5296,
      "##빼": 5297,
      "##쇄": 5298,
      "##샵": 5299,
      "##꽁": 5300,
      "##찍": 5301,
      "##쇼": 5302,
      "##촉": 5303,
      "##б": 5304,
      "##쩐": 5305,
      "##늘": 5306,
      "##쨩": 5307,
      "##튼": 5308,
      "##률": 5309,
      "##홈": 5310,
      "##랭": 5311,
      "##먄": 5312,
      "##컥": 5313,
      "##げ": 5314,
      "##효": 5315,
      "##밴": 5316,
      "##켄": 5317,
      "##㎡": 5318,
      "##욱": 5319,
      "##렴": 5320,
      "##냠": 5321,
      "##섭": 5322,
      "##й": 5323,
      "##댕": 5324,
      "##봄": 5325,
      "##귀": 5326,
      "##댐": 5327,
      "##윗": 5328,
      "##빗": 5329,
      "##훈": 5330,
      "##뤘": 5331,
      "##램": 5332,
      "##씀": 5333,
      "##횡": 5334,
      "##훨": 5335,
      "##컬": 5336,
      "##쌤": 5337,
      "##볶": 5338,
      "##쿵": 5339,
      "##듬": 5340,
      "##윤": 5341,
      "##햇": 5342,
      "##략": 5343,
      "##텀": 5344,
      "##х": 5345,
      "##や": 5346,
      "##춤": 5347,
      "##뇌": 5348,
      "##홀": 5349,
      "##렝": 5350,
      "##벤": 5351,
      "##🤎": 5352,
      "##뿌": 5353,
      "##춰": 5354,
      "##ㄱ": 5355,
      "##싹": 5356,
      "##긔": 5357,
      "##벅": 5358,
      "##눌": 5359,
      "##É": 5360,
      "##덴": 5361,
      "##멋": 5362,
      "##펴": 5363,
      "##겹": 5364,
      "##찾": 5365,
      "##줬": 5366,
      "##뭉": 5367,
      "##ˊ": 5368,
      "##ˋ": 5369,
      "##셰": 5370,
      "##쪄": 5371,
      "##몽": 5372,
      "##삿": 5373,
      "##흔": 5374,
      "##つ": 5375,
      "##か": 5376,
      "##팁": 5377,
      "##ì": 5378,
      "##핀": 5379,
      "##じ": 5380,
      "##ょ": 5381,
      "##ぶ": 5382,
      "##둘": 5383,
      "##륙": 5384,
      "##셀": 5385,
      "##м": 5386,
      "##딥": 5387,
      "##튜": 5388,
      "##멜": 5389,
      "##끗": 5390,
      "##ァ": 5391,
      "##ミ": 5392,
      "##リ": 5393,
      "##コ": 5394,
      "##ピ": 5395,
      "##タ": 5396,
      "##첫": 5397,
      "##폴": 5398,
      "##쌩": 5399,
      "##깐": 5400,
      "##갔": 5401,
      "##딕": 5402,
      "##윙": 5403,
      "##왜": 5404,
      "##탕": 5405,
      "##켈": 5406,
      "##쨌": 5407,
      "##á": 5408,
      "##휘": 5409,
      "##캠": 5410,
      "##숭": 5411,
      "##핫": 5412,
      "##덩": 5413,
      "##뭐": 5414,
      "##ㅏ": 5415,
      "##ㅗ": 5416,
      "##넬": 5417,
      "##ế": 5418,
      "##됀": 5419,
      "##빨": 5420,
      "##팥": 5421,
      "##객": 5422,
      "##삘": 5423,
      "##탱": 5424,
      "##햐": 5425,
      "##쌈": 5426,
      "##떠": 5427,
      "##뜩": 5428,
      "##틀": 5429,
      "##벼": 5430,
      "##ł": 5431,
      "##덜": 5432,
      "##땀": 5433,
      "##돠": 5434,
      "##굼": 5435,
      "##늬": 5436,
      "##®": 5437,
      "##혀": 5438,
      "##섣": 5439,
      "##옴": 5440,
      "##찬": 5441,
      "##넌": 5442,
      "##큘": 5443,
      "##😏": 5444,
      "##닠": 5445,
      "##ナ": 5446,
      "##돗": 5447,
      "##첵": 5448,
      "##럿": 5449,
      "##셧": 5450,
      "##톱": 5451,
      "##짓": 5452,
      "##떨": 5453,
      "##룹": 5454,
      "##쿨": 5455,
      "##뱀": 5456,
      "##★": 5457,
      "##콥": 5458,
      "##벚": 5459,
      "##넣": 5460,
      "##뤠": 5461,
      "##솜": 5462,
      "##샌": 5463,
      "##얻": 5464,
      "##뱃": 5465,
      "##쿼": 5466,
      "##쪘": 5467,
      "##빡": 5468,
      "##き": 5469,
      "##λ": 5470,
      "##ή": 5471,
      "##싯": 5472,
      "##땐": 5473,
      "##쵸": 5474,
      "##첩": 5475,
      "##퀸": 5476,
      "##겸": 5477,
      "##딱": 5478,
      "##숯": 5479,
      "##щ": 5480,
      "##갸": 5481,
      "##턱": 5482,
      "##옆": 5483,
      "##깎": 5484,
      "##캇": 5485,
      "##ل": 5486,
      "##ي": 5487,
      "##ة": 5488,
      "##æ": 5489,
      "##キ": 5490,
      "##ャ": 5491,
      "##썬": 5492,
      "##쓸": 5493,
      "##덤": 5494,
      "##빰": 5495,
      "##캅": 5496,
      "##퉁": 5497,
      "##셈": 5498,
      "##닐": 5499,
      "##쌀": 5500,
      "##숲": 5501,
      "##늦": 5502,
      "##캄": 5503,
      "##꿨": 5504,
      "##꿀": 5505,
      "##맣": 5506,
      "##ね": 5507,
      "##첼": 5508,
      "##헨": 5509,
      "##랬": 5510,
      "##뎃": 5511,
      "##빴": 5512,
      "##괜": 5513,
      "##í": 5514,
      "##−": 5515,
      "##쿰": 5516,
      "##냄": 5517,
      "##픈": 5518,
      "##랏": 5519,
      "##멸": 5520,
      "##넹": 5521,
      "##톨": 5522,
      "##끈": 5523,
      "##딜": 5524,
      "##ַ": 5525,
      "##ּ": 5526,
      "##흙": 5527,
      "##훔": 5528,
      "##ㄷ": 5529,
      "##ㅕ": 5530,
      "##ㅈ": 5531,
      "##팸": 5532,
      "##섹": 5533,
      "##욥": 5534,
      "##뀌": 5535,
      "##ド": 5536,
      "##넨": 5537,
      "##モ": 5538,
      "##ネ": 5539,
      "##ギ": 5540,
      "##ビ": 5541,
      "##セ": 5542,
      "##엣": 5543,
      "##엥": 5544,
      "##흑": 5545,
      "##콰": 5546,
      "##뱌": 5547,
      "##떵": 5548,
      "##빔": 5549,
      "##멍": 5550,
      "##ゃ": 5551,
      "##맹": 5552,
      "##잌": 5553,
      "##늑": 5554,
      "##욧": 5555,
      "##젓": 5556,
      "##ǔ": 5557,
      "##쭤": 5558,
      "##믹": 5559,
      "##곧": 5560,
      "##붓": 5561,
      "##얕": 5562,
      "##え": 5563,
      "##엉": 5564,
      "##엌": 5565,
      "##び": 5566,
      "##オ": 5567,
      "##갱": 5568,
      "##̑": 5569,
      "##̈": 5570,
      "##득": 5571,
      "##ぁ": 5572,
      "##ざ": 5573,
      "##ゆ": 5574,
      "##놈": 5575,
      "##쮸": 5576,
      "##○": 5577,
      "##♧": 5578,
      "##꾼": 5579,
      "##둡": 5580,
      "##짬": 5581,
      "##렙": 5582,
      "##돔": 5583,
      "##듐": 5584,
      "##ã": 5585,
      "##왼": 5586,
      "##최": 5587,
      "##짧": 5588,
      "##휠": 5589,
      "##슛": 5590,
      "##③": 5591,
      "##죄": 5592,
      "##ニ": 5593,
      "##쩜": 5594,
      "##뤄": 5595,
      "##깜": 5596,
      "##숫": 5597,
      "##쏟": 5598,
      "##낯": 5599,
      "##ヨ": 5600,
      "##パ": 5601,
      "##컵": 5602,
      "##팽": 5603,
      "##렛": 5604,
      "##큭": 5605,
      "##닼": 5606,
      "##획": 5607,
      "##슷": 5608,
      "##쬬": 5609,
      "##팜": 5610,
      "##ㅅ": 5611,
      "##ㅂ": 5612,
      "##픔": 5613,
      "##땨": 5614,
      "##칩": 5615,
      "##펙": 5616,
      "##봣": 5617,
      "##쿱": 5618,
      "##쯤": 5619,
      "##쫌": 5620,
      "##돋": 5621,
      "##쫒": 5622,
      "##죵": 5623,
      "##핵": 5624,
      "##쨈": 5625,
      "##끽": 5626,
      "##꿍": 5627,
      "##넛": 5628,
      "##냅": 5629,
      "##ア": 5630,
      "##を": 5631,
      "##ღ": 5632,
      "##▶": 5633,
      "##▷": 5634,
      "##◀": 5635,
      "##◁": 5636,
      "##☀": 5637,
      "##☁": 5638,
      "##⊙": 5639,
      "##찡": 5640,
      "##쇠": 5641,
      "##ㅣ": 5642,
      "##씬": 5643,
      "##댄": 5644,
      "##흡": 5645,
      "##쯔": 5646,
      "##ú": 5647,
      "##텃": 5648,
      "##캬": 5649,
      "##씌": 5650,
      "##촨": 5651,
      "##셍": 5652,
      "##씸": 5653,
      "##헷": 5654,
      "##🌸": 5655,
      "##뭄": 5656,
      "##뷔": 5657,
      "##셋": 5658,
      "##챔": 5659,
      "##욬": 5660,
      "##ソ": 5661,
      "##ウ": 5662,
      "##눔": 5663,
      "##밭": 5664,
      "##쒀": 5665,
      "##늄": 5666,
      "##밧": 5667,
      "##💕": 5668,
      "##ö": 5669,
      "##팟": 5670,
      "##핏": 5671,
      "##밝": 5672,
      "##젝": 5673,
      "##닦": 5674,
      "##렬": 5675,
      "##왓": 5676,
      "##샛": 5677,
      "##넥": 5678,
      "##땜": 5679,
      "##떙": 5680,
      "##˃": 5681,
      "##̶": 5682,
      "##◟": 5683,
      "##◞": 5684,
      "##˂": 5685,
      "##욜": 5686,
      "##엿": 5687,
      "##될": 5688,
      "##뻔": 5689,
      "##셉": 5690,
      "##●": 5691,
      "##ヲ": 5692,
      "##쉴": 5693,
      "##쑈": 5694,
      "##š": 5695,
      "##펄": 5696,
      "##뜻": 5697,
      "##č": 5698,
      "##곸": 5699,
      "##숴": 5700,
      "##ю": 5701,
      "##몹": 5702,
      "##ノ": 5703,
      "##ベ": 5704,
      "##덮": 5705,
      "##퀘": 5706,
      "##먀": 5707,
      "##뭔": 5708,
      "##퐁": 5709,
      "##찐": 5710,
      "##껍": 5711,
      "##マ": 5712,
      "##썹": 5713,
      "##붕": 5714,
      "##놔": 5715,
      "##쑨": 5716,
      "##ж": 5717,
      "##ᵔ": 5718,
      "##ᆢ": 5719,
      "##캡": 5720,
      "##슐": 5721,
      "##찹": 5722,
      "##즉": 5723,
      "##믿": 5724,
      "##텝": 5725,
      "##ゲ": 5726,
      "##뀝": 5727,
      "##앵": 5728,
      "##눅": 5729,
      "##헝": 5730,
      "##벗": 5731,
      "##ガ": 5732,
      "##뭇": 5733,
      "##🙏": 5734,
      "##썸": 5735,
      "##쒸": 5736,
      "##룽": 5737,
      "##듄": 5738,
      "##녔": 5739,
      "##옮": 5740,
      "##똑": 5741,
      "##י": 5742,
      "##샴": 5743,
      "##℃": 5744,
      "##닛": 5745,
      "##낌": 5746,
      "##풋": 5747,
      "##낄": 5748,
      "##댔": 5749,
      "##둑": 5750,
      "##땡": 5751,
      "##べ": 5752,
      "##∙": 5753,
      "##읽": 5754,
      "##흰": 5755,
      "##쿤": 5756,
      "##듦": 5757,
      "##칫": 5758,
      "##늠": 5759,
      "##ズ": 5760,
      "##윅": 5761,
      "##∈": 5762,
      "##뛰": 5763,
      "##そ": 5764,
      "##흠": 5765,
      "##뚜": 5766,
      "##ず": 5767,
      "##뜬": 5768,
      "##떤": 5769,
      "##틈": 5770,
      "##옹": 5771,
      "##뮬": 5772,
      "##닿": 5773,
      "##깡": 5774,
      "##둬": 5775,
      "##옙": 5776,
      "##ハ": 5777,
      "##캘": 5778,
      "##숩": 5779,
      "##샅": 5780,
      "##짚": 5781,
      "##♣": 5782,
      "##テ": 5783,
      "##랗": 5784,
      "##높": 5785,
      "##룬": 5786,
      "##ê": 5787,
      "##î": 5788,
      "##낭": 5789,
      "##켓": 5790,
      "##Б": 5791,
      "##쵝": 5792,
      "##쩍": 5793,
      "##뭍": 5794,
      "##툴": 5795,
      "##쎄": 5796,
      "##혔": 5797,
      "##밟": 5798,
      "##룰": 5799,
      "##탤": 5800,
      "##괘": 5801,
      "##녜": 5802,
      "##듣": 5803,
      "##─": 5804,
      "##❌": 5805,
      "##슥": 5806,
      "##뒷": 5807,
      "##팍": 5808,
      "##📍": 5809,
      "##맑": 5810,
      "##멈": 5811,
      "##떄": 5812,
      "##뱅": 5813,
      "##τ": 5814,
      "##ε": 5815,
      "##핳": 5816,
      "##휀": 5817,
      "##ั": 5818,
      "##ิ": 5819,
      "##ท": 5820,
      "##ง": 5821,
      "##→": 5822,
      "##🍊": 5823,
      "##🤔": 5824,
      "##폿": 5825,
      "##ü": 5826,
      "##쏴": 5827,
      "##덧": 5828,
      "##몇": 5829,
      "##뿅": 5830,
      "##곱": 5831,
      "##숨": 5832,
      "##윌": 5833,
      "##줍": 5834,
      "##쎈": 5835,
      "##떳": 5836,
      "##툰": 5837,
      "##♩": 5838,
      "##♬": 5839,
      "##±": 5840,
      "##얍": 5841,
      "##쏠": 5842,
      "##콕": 5843,
      "##껄": 5844,
      "##솟": 5845,
      "##ć": 5846,
      "##η": 5847,
      "##ν": 5848,
      "##퓰": 5849,
      "##꼇": 5850,
      "##얀": 5851,
      "##맸": 5852,
      "##ご": 5853,
      "##롄": 5854,
      "##쫓": 5855,
      "##끊": 5856,
      "##뺐": 5857,
      "##헥": 5858,
      "##꼐": 5859,
      "##긍": 5860,
      "##ボ": 5861,
      "##흩": 5862,
      "##앰": 5863,
      "##많": 5864,
      "##믈": 5865,
      "##앉": 5866,
      "##ザ": 5867,
      "##ᅲ": 5868,
      "##깃": 5869,
      "##앓": 5870,
      "##ケ": 5871,
      "##땠": 5872,
      "##륵": 5873,
      "##ō": 5874,
      "##릇": 5875,
      "##잖": 5876,
      "##졋": 5877,
      "##퀀": 5878,
      "##ר": 5879,
      "##셩": 5880,
      "##ホ": 5881,
      "##밋": 5882,
      "##듈": 5883,
      "##짖": 5884,
      "##맴": 5885,
      "##듸": 5886,
      "##뻤": 5887,
      "##☞": 5888,
      "##ダ": 5889,
      "##꼴": 5890,
      "##⅓": 5891,
      "##⋅": 5892,
      "##㎝": 5893,
      "##묻": 5894,
      "##쩔": 5895,
      "##짤": 5896,
      "##쨘": 5897,
      "##ø": 5898,
      "##깝": 5899,
      "##꿉": 5900,
      "##ر": 5901,
      "##썽": 5902,
      "##₩": 5903,
      "##즁": 5904,
      "##▲": 5905,
      "##뎌": 5906,
      "##ᆞ": 5907,
      "##깍": 5908,
      "##ǐ": 5909,
      "##뼛": 5910,
      "##ワ": 5911,
      "##ヤ": 5912,
      "##뒤": 5913,
      "##🏻": 5914,
      "##ְ": 5915,
      "##똘": 5916,
      "##😆": 5917,
      "##뻑": 5918,
      "##촛": 5919,
      "##멧": 5920,
      "##´": 5921,
      "##ぼ": 5922,
      "##젯": 5923,
      "##훌": 5924,
      "##왈": 5925,
      "##ㅌ": 5926,
      "##듕": 5927,
      "##훙": 5928,
      "##깁": 5929,
      "##혓": 5930,
      "##딧": 5931,
      "##і": 5932,
      "##륄": 5933,
      "##쫑": 5934,
      "##밑": 5935,
      "##꼽": 5936,
      "##슉": 5937,
      "##̮": 5938,
      "##넓": 5939,
      "##퀵": 5940,
      "##🍃": 5941,
      "##캉": 5942,
      "##괄": 5943,
      "##뽐": 5944,
      "##좡": 5945,
      "##ふ": 5946,
      "##ί": 5947,
      "##π": 5948,
      "##ω": 5949,
      "##🧡": 5950,
      "##빅": 5951,
      "##껀": 5952,
      "##긋": 5953,
      "##맟": 5954,
      "##ç": 5955,
      "##❕": 5956,
      "##뚤": 5957,
      "##웬": 5958,
      "##쌓": 5959,
      "##💓": 5960,
      "##✨": 5961,
      "##찔": 5962,
      "##∨": 5963,
      "##댈": 5964,
      "##됬": 5965,
      "##탠": 5966,
      "##ぐ": 5967,
      "##튠": 5968,
      "##쭙": 5969,
      "##Δ": 5970,
      "##찿": 5971,
      "##빕": 5972,
      "##ෆ": 5973,
      "##덱": 5974,
      "##촐": 5975,
      "##댁": 5976,
      "##몸": 5977,
      "##믄": 5978,
      "##꼈": 5979,
      "##벵": 5980,
      "##앳": 5981,
      "##챦": 5982,
      "##쟎": 5983,
      "##웹": 5984,
      "##😂": 5985,
      "##🤣": 5986,
      "##닙": 5987,
      "##ひ": 5988,
      "##ℓ": 5989,
      "##㎎": 5990,
      "##얌": 5991,
      "##ו": 5992,
      "##ה": 5993,
      "##꽂": 5994,
      "##옇": 5995,
      "##👏": 5996,
      "##า": 5997,
      "##อ": 5998,
      "##̄": 5999,
      "##샥": 6000,
      "##헐": 6001,
      "##옐": 6002,
      "##씽": 6003,
      "##🤍": 6004,
      "##ㄲ": 6005,
      "##쫄": 6006,
      "##냇": 6007,
      "##⑤": 6008,
      "##ù": 6009,
      "##쿡": 6010,
      "##컸": 6011,
      "##ǒ": 6012,
      "##잣": 6013,
      "##◐": 6014,
      "##📸": 6015,
      "##ш": 6016,
      "##ツ": 6017,
      "##デ": 6018,
      "##밈": 6019,
      "##켯": 6020,
      "##됫": 6021,
      "##핍": 6022,
      "##헛": 6023,
      "##κ": 6024,
      "##챙": 6025,
      "##🐶": 6026,
      "##쭉": 6027,
      "##넝": 6028,
      "##👀": 6029,
      "##ß": 6030,
      "##ع": 6031,
      "##و": 6032,
      "##킴": 6033,
      "##×": 6034,
      "##쓱": 6035,
      "##웜": 6036,
      "##ㅉ": 6037,
      "##숟": 6038,
      "##괸": 6039,
      "##쑥": 6040,
      "##렵": 6041,
      "##メ": 6042,
      "##챈": 6043,
      "##퐈": 6044,
      "##🎉": 6045,
      "##겡": 6046,
      "##튕": 6047,
      "##갛": 6048,
      "##뵈": 6049,
      "##づ": 6050,
      "##팠": 6051,
      "##Ⅰ": 6052,
      "##윷": 6053,
      "##뻣": 6054,
      "##🐷": 6055,
      "##짭": 6056,
      "##δ": 6057,
      "##쭘": 6058,
      "##짠": 6059,
      "##꼭": 6060,
      "##ִ": 6061,
      "##윰": 6062,
      "##넜": 6063,
      "##◆": 6064,
      "##륭": 6065,
      "##ب": 6066,
      "##ن": 6067,
      "##˝": 6068,
      "##✦": 6069,
      "##멩": 6070,
      "##ό": 6071,
      "##섴": 6072,
      "##쳇": 6073,
      "##헵": 6074,
      "##윳": 6075,
      "##둣": 6076,
      "##놧": 6077,
      "##🐕": 6078,
      "##뺀": 6079,
      "##뱉": 6080,
      "##━": 6081,
      "##쨔": 6082,
      "##굶": 6083,
      "##눠": 6084,
      "##삽": 6085,
      "##å": 6086,
      "##☝": 6087,
      "##뎁": 6088,
      "##칵": 6089,
      "##핼": 6090,
      "##벙": 6091,
      "##퀼": 6092,
      "##ペ": 6093,
      "##툭": 6094,
      "##넙": 6095,
      "##낑": 6096,
      "##헉": 6097,
      "##쉰": 6098,
      "##😳": 6099,
      "##즌": 6100,
      "##푼": 6101,
      "##웻": 6102,
      "##🙋": 6103,
      "##ㅆ": 6104,
      "##뎀": 6105,
      "##퀄": 6106,
      "##넼": 6107,
      "##뜸": 6108,
      "##ǎ": 6109,
      "##펭": 6110,
      "##텁": 6111,
      "##ぞ": 6112,
      "##ф": 6113,
      "##앜": 6114,
      "##❣": 6115,
      "##갯": 6116,
      "##쭐": 6117,
      "##숑": 6118,
      "##Ⅱ": 6119,
      "##√": 6120,
      "##횟": 6121,
      "##띄": 6122,
      "##①": 6123,
      "##☺": 6124,
      "##€": 6125,
      "##끝": 6126,
      "##■": 6127,
      "##В": 6128,
      "##Р": 6129,
      "##Т": 6130,
      "##ㅑ": 6131,
      "##곘": 6132,
      "##빚": 6133,
      "##㎖": 6134,
      "##캣": 6135,
      "##🌱": 6136,
      "##띨": 6137,
      "##냈": 6138,
      "##킵": 6139,
      "##낱": 6140,
      "##뜰": 6141,
      "##굣": 6142,
      "##뉘": 6143,
      "##궐": 6144,
      "##굉": 6145,
      "##㎞": 6146,
      "##섰": 6147,
      "##꺽": 6148,
      "##↑": 6149,
      "##훗": 6150,
      "##◎": 6151,
      "##톳": 6152,
      "##닢": 6153,
      "##ゴ": 6154,
      "##쥰": 6155,
      "##홋": 6156,
      "##㎢": 6157,
      "##늪": 6158,
      "##↙": 6159,
      "##↗": 6160,
      "##↓": 6161,
      "##←": 6162,
      "##뮨": 6163,
      "##룻": 6164,
      "##✔": 6165,
      "##▩": 6166,
      "##눗": 6167,
      "##힙": 6168,
      "##욯": 6169,
      "##맬": 6170,
      "##힉": 6171,
      "##흉": 6172,
      "##ヒ": 6173,
      "##쟌": 6174,
      "##듭": 6175,
      "##댓": 6176,
      "##즤": 6177,
      "##②": 6178,
      "##셌": 6179,
      "##덟": 6180,
      "##ㅔ": 6181,
      "##ㄸ": 6182,
      "##숍": 6183,
      "##껑": 6184,
      "##ㅐ": 6185,
      "##█": 6186,
      "##퍽": 6187,
      "##뗀": 6188,
      "##귓": 6189,
      "##됌": 6190,
      "##뜀": 6191,
      "##뷴": 6192,
      "##텨": 6193,
      "##🎶": 6194,
      "##๑": 6195,
      "##좁": 6196,
      "##뺨": 6197,
      "##섀": 6198,
      "##̀": 6199,
      "##젖": 6200,
      "##꺄": 6201,
      "##챌": 6202,
      "##쏭": 6203,
      "##짹": 6204,
      "##낮": 6205,
      "##™": 6206,
      "##싫": 6207,
      "##놋": 6208,
      "##뿡": 6209,
      "##욘": 6210,
      "##샹": 6211,
      "##챡": 6212,
      "##믐": 6213,
      "##≫": 6214,
      "##쉼": 6215,
      "##챘": 6216,
      "##핥": 6217,
      "##넴": 6218,
      "##쨋": 6219,
      "##됴": 6220,
      "##킁": 6221,
      "##ב": 6222,
      "##렷": 6223,
      "##묜": 6224,
      "##뾰": 6225,
      "##💛": 6226,
      "##슝": 6227,
      "##핌": 6228,
      "##ô": 6229,
      "##겜": 6230,
      "##끕": 6231,
      "##🙊": 6232,
      "##د": 6233,
      "##탯": 6234,
      "##덥": 6235,
      "##텼": 6236,
      "##∴": 6237,
      "##춥": 6238,
      "##넵": 6239,
      "##셸": 6240,
      "##깽": 6241,
      "##옛": 6242,
      "##쳣": 6243,
      "##🥳": 6244,
      "##잭": 6245,
      "##💐": 6246,
      "##🖤": 6247,
      "##쏙": 6248,
      "##쎌": 6249,
      "##👆": 6250,
      "##펩": 6251,
      "##겄": 6252,
      "##좔": 6253,
      "##ş": 6254,
      "##벡": 6255,
      "##🥲": 6256,
      "##ぜ": 6257,
      "##쬐": 6258,
      "##윔": 6259,
      "##ม": 6260,
      "##홉": 6261,
      "##≥": 6262,
      "##쩡": 6263,
      "##둠": 6264,
      "##💦": 6265,
      "##😉": 6266,
      "##읏": 6267,
      "##솝": 6268,
      "##슭": 6269,
      "##뜯": 6270,
      "##췌": 6271,
      "##쫀": 6272,
      "##쪙": 6273,
      "##쭝": 6274,
      "##뚠": 6275,
      "##β": 6276,
      "##씻": 6277,
      "##̵": 6278,
      "##͈": 6279,
      "##́": 6280,
      "##∀": 6281,
      "##튤": 6282,
      "##썼": 6283,
      "##ぱ": 6284,
      "##찻": 6285,
      "##₂": 6286,
      "##팻": 6287,
      "##│": 6288,
      "##्": 6289,
      "##ा": 6290,
      "##헹": 6291,
      "##펼": 6292,
      "##🍓": 6293,
      "##츌": 6294,
      "##옻": 6295,
      "##붐": 6296,
      "##씁": 6297,
      "##😚": 6298,
      "##😘": 6299,
      "##맡": 6300,
      "##쩨": 6301,
      "##눴": 6302,
      "##🎵": 6303,
      "##푀": 6304,
      "##헿": 6305,
      "##팹": 6306,
      "##💚": 6307,
      "##ě": 6308,
      "##헙": 6309,
      "##뽁": 6310,
      "##힛": 6311,
      "##뷸": 6312,
      "##˘": 6313,
      "##쉿": 6314,
      "##곁": 6315,
      "##💗": 6316,
      "##💖": 6317,
      "##💘": 6318,
      "##탬": 6319,
      "##😊": 6320,
      "##쁨": 6321,
      "##깥": 6322,
      "##̤": 6323,
      "##θ": 6324,
      "##∥": 6325,
      "##뮈": 6326,
      "##น": 6327,
      "##ก": 6328,
      "##ร": 6329,
      "##้": 6330,
      "##😄": 6331,
      "##🍀": 6332,
      "##쾅": 6333,
      "##볏": 6334,
      "##겆": 6335,
      "##ά": 6336,
      "##겻": 6337,
      "##뀔": 6338,
      "##┓": 6339,
      "##냘": 6340,
      "##힝": 6341,
      "##ñ": 6342,
      "##뮌": 6343,
      "##곶": 6344,
      "##ı": 6345,
      "##꺅": 6346,
      "##˙": 6347,
      "##왠": 6348,
      "##썩": 6349,
      "##쓴": 6350,
      "##😌": 6351,
      "##똬": 6352,
      "##쇽": 6353,
      "##얗": 6354,
      "##깟": 6355,
      "##샾": 6356,
      "##홧": 6357,
      "##낀": 6358,
      "##횽": 6359,
      "##˚": 6360,
      "##♭": 6361,
      "##뻬": 6362,
      "##낏": 6363,
      "##뭥": 6364,
      "##┗": 6365,
      "##┛": 6366,
      "##쥴": 6367,
      "##э": 6368,
      "##뀐": 6369,
      "##С": 6370,
      "##눼": 6371,
      "##🤗": 6372,
      "##😁": 6373,
      "##뽑": 6374,
      "##뫼": 6375,
      "##ᄏ": 6376,
      "##ɪ": 6377,
      "##갚": 6378,
      "##숏": 6379,
      "##볐": 6380,
      "##딪": 6381,
      "##▼": 6382,
      "##겋": 6383,
      "##🙈": 6384,
      "##훠": 6385,
      "##옄": 6386,
      "##❗": 6387,
      "##잿": 6388,
      "##켠": 6389,
      "##😃": 6390,
      "##젭": 6391,
      "##딴": 6392,
      "##ː": 6393,
      "##꽉": 6394,
      "##Ø": 6395,
      "##탓": 6396,
      "##멱": 6397,
      "##♦": 6398,
      "##🎁": 6399,
      "##낍": 6400,
      "##뀜": 6401,
      "##㎚": 6402,
      "##챱": 6403,
      "##낳": 6404,
      "##뵤": 6405,
      "##넉": 6406,
      "##▽": 6407,
      "##ポ": 6408,
      "##젬": 6409,
      "##됍": 6410,
      "##휼": 6411,
      "##흣": 6412,
      "##줏": 6413,
      "##쉘": 6414,
      "##탉": 6415,
      "##픕": 6416,
      "##벧": 6417,
      "##ⓒ": 6418,
      "##쨰": 6419,
      "##잦": 6420,
      "##죤": 6421,
      "##젊": 6422,
      "##ư": 6423,
      "##🤤": 6424,
      "##꿰": 6425,
      "##숄": 6426,
      "##얹": 6427,
      "##뵐": 6428,
      "##썻": 6429,
      "##ệ": 6430,
      "##😀": 6431,
      "##ย": 6432,
      "##่": 6433,
      "##เ": 6434,
      "##쌌": 6435,
      "##묶": 6436,
      "##삔": 6437,
      "##츨": 6438,
      "##ㅃ": 6439,
      "##몫": 6440,
      "##햅": 6441,
      "##촥": 6442,
      "##쨍": 6443,
      "##뉜": 6444,
      "##◡": 6445,
      "##훤": 6446,
      "##뎠": 6447,
      "##궂": 6448,
      "##찼": 6449,
      "##🙌": 6450,
      "##껜": 6451,
      "##텟": 6452,
      "##솨": 6453,
      "##ë": 6454,
      "##̊": 6455,
      "##쉑": 6456,
      "##걔": 6457,
      "##▒": 6458,
      "##닮": 6459,
      "##괌": 6460,
      "##윽": 6461,
      "##👋": 6462,
      "##팰": 6463,
      "##샀": 6464,
      "##큽": 6465,
      "##☑": 6466,
      "##̴": 6467,
      "##⁼": 6468,
      "##┬": 6469,
      "##┤": 6470,
      "##♠": 6471,
      "##딨": 6472,
      "##꼰": 6473,
      "##ū": 6474,
      "##웩": 6475,
      "##ユ": 6476,
      "##캥": 6477,
      "##웁": 6478,
      "##늙": 6479,
      "##몆": 6480,
      "##톈": 6481,
      "##φ": 6482,
      "##튭": 6483,
      "##걍": 6484,
      "##촵": 6485,
      "##뒹": 6486,
      "##뻘": 6487,
      "##◑": 6488,
      "##똠": 6489,
      "##챗": 6490,
      "##꽝": 6491,
      "##샨": 6492,
      "##짘": 6493,
      "##볕": 6494,
      "##゚": 6495,
      "##뺄": 6496,
      "##휩": 6497,
      "##ò": 6498,
      "##➖": 6499,
      "##⋯": 6500,
      "##쟀": 6501,
      "##촘": 6502,
      "##쟝": 6503,
      "##⭕": 6504,
      "##뇸": 6505,
      "##쁠": 6506,
      "##💥": 6507,
      "##숀": 6508,
      "##똭": 6509,
      "##깊": 6510,
      "##뮴": 6511,
      "##쌕": 6512,
      "##퓸": 6513,
      "##😎": 6514,
      "##웡": 6515,
      "##엊": 6516,
      "##♀": 6517,
      "##귈": 6518,
      "##헴": 6519,
      "##쥔": 6520,
      "##잊": 6521,
      "##옳": 6522,
      "##텅": 6523,
      "##헀": 6524,
      "##댑": 6525,
      "##💜": 6526,
      "##╹": 6527,
      "##✿": 6528,
      "##💪": 6529,
      "##쁩": 6530,
      "##됏": 6531,
      "##ㅛ": 6532,
      "##굳": 6533,
      "##뭅": 6534,
      "##갇": 6535,
      "##컹": 6536,
      "##찝": 6537,
      "##셴": 6538,
      "##뿜": 6539,
      "##🌿": 6540,
      "##😢": 6541,
      "##⑧": 6542,
      "##♤": 6543,
      "##잤": 6544,
      "##횃": 6545,
      "##🍒": 6546,
      "##퉤": 6547,
      "##쾨": 6548,
      "##앴": 6549,
      "##칡": 6550,
      "##긁": 6551,
      "##좇": 6552,
      "##뒈": 6553,
      "##푠": 6554,
      "##👩": 6555,
      "##쾰": 6556,
      "##빳": 6557,
      "##늉": 6558,
      "##Д": 6559,
      "##🌹": 6560,
      "##딛": 6561,
      "##¯": 6562,
      "##팎": 6563,
      "##Í": 6564,
      "##쏨": 6565,
      "##🙃": 6566,
      "##챤": 6567,
      "##찢": 6568,
      "##퐝": 6569,
      "##∇": 6570,
      "##뻥": 6571,
      "##힣": 6572,
      "##멥": 6573,
      "##쏜": 6574,
      "##읕": 6575,
      "##윕": 6576,
      "##⣿": 6577,
      "##웟": 6578,
      "##렜": 6579,
      "##궜": 6580,
      "##⃣": 6581,
      "##탔": 6582,
      "##냑": 6583,
      "##튿": 6584,
      "##£": 6585,
      "##펨": 6586,
      "##겉": 6587,
      "##🥺": 6588,
      "##µ": 6589,
      "##짢": 6590,
      "##🏼": 6591,
      "##촤": 6592,
      "##💝": 6593,
      "##삯": 6594,
      "##쌰": 6595,
      "##🌼": 6596,
      "##〓": 6597,
      "##뺏": 6598,
      "##㎏": 6599,
      "##펐": 6600,
      "##̷": 6601,
      "##̥": 6602,
      "##괞": 6603,
      "##갠": 6604,
      "##😅": 6605,
      "##씰": 6606,
      "##귄": 6607,
      "##뻗": 6608,
      "##폈": 6609,
      "##😋": 6610,
      "##🙄": 6611,
      "##➰": 6612,
      "##💙": 6613,
      "##퉈": 6614,
      "##꿩": 6615,
      "##꾹": 6616,
      "##푹": 6617,
      "##М": 6618,
      "##А": 6619,
      "##Н": 6620,
      "##К": 6621,
      "##콸": 6622,
      "##끓": 6623,
      "##끙": 6624,
      "##랠": 6625,
      "##³": 6626,
      "##꼿": 6627,
      "##쌉": 6628,
      "##┏": 6629,
      "##츤": 6630,
      "##깬": 6631,
      "##땋": 6632,
      "##싣": 6633,
      "##👉": 6634,
      "##갰": 6635,
      "##┘": 6636,
      "##┌": 6637,
      "##얽": 6638,
      "##ⓑ": 6639,
      "##⑥": 6640,
      "##섞": 6641,
      "##넸": 6642,
      "##껌": 6643,
      "##🙂": 6644,
      "##돕": 6645,
      "##뛴": 6646,
      "##뀨": 6647,
      "##👌": 6648,
      "##쥘": 6649,
      "##ʕ": 6650,
      "##곗": 6651,
      "##◯": 6652,
      "##ả": 6653,
      "##갗": 6654,
      "##롷": 6655,
      "##읭": 6656,
      "##틔": 6657,
      "##❛": 6658,
      "##밉": 6659,
      "##멓": 6660,
      "##đ": 6661,
      "##뇬": 6662,
      "##💡": 6663,
      "##좆": 6664,
      "##땟": 6665,
      "##띔": 6666,
      "##쫘": 6667,
      "##□": 6668,
      "##☻": 6669,
      "##풉": 6670,
      "##곯": 6671,
      "##좃": 6672,
      "##꺾": 6673,
      "##덖": 6674,
      "##↘": 6675,
      "##뼉": 6676,
      "##↕": 6677,
      "##✓": 6678,
      "##괭": 6679,
      "##쐬": 6680,
      "##봬": 6681,
      "##삥": 6682,
      "##왑": 6683,
      "##🎈": 6684,
      "##∞": 6685,
      "##㎾": 6686,
      "##깻": 6687,
      "##숱": 6688,
      "##◇": 6689,
      "##∗": 6690,
      "##♂": 6691,
      "##맏": 6692,
      "##◕": 6693,
      "##엎": 6694,
      "##̆": 6695,
      "##⅔": 6696,
      "##😇": 6697,
      "##빤": 6698,
      "##뙇": 6699,
      "##🤭": 6700,
      "##☎": 6701,
      "##🔻": 6702,
      "##띈": 6703,
      "##ᄒ": 6704,
      "##🏃": 6705,
      "##▫": 6706,
      "##㎕": 6707,
      "##훅": 6708,
      "##섶": 6709,
      "##😱": 6710,
      "##깰": 6711,
      "##휨": 6712,
      "##엡": 6713,
      "##🌟": 6714,
      "##훑": 6715,
      "##잃": 6716,
      "##👇": 6717,
      "##¸": 6718,
      "##놉": 6719,
      "##폄": 6720,
      "##쌔": 6721,
      "##🎄": 6722,
      "##🍎": 6723,
      "##꙼": 6724,
      "##냔": 6725,
      "##슌": 6726,
      "##😝": 6727,
      "##홑": 6728,
      "##갭": 6729,
      "##켁": 6730,
      "##🔹": 6731,
      "##🔸": 6732,
      "##띤": 6733,
      "##✧": 6734,
      "##폽": 6735,
      "##콱": 6736,
      "##⫬": 6737,
      "##툽": 6738,
      "##뮐": 6739,
      "##덫": 6740,
      "##쐐": 6741,
      "##튈": 6742,
      "##┐": 6743,
      "##☜": 6744,
      "##🔽": 6745,
      "##잰": 6746,
      "##😥": 6747,
      "##쉔": 6748,
      "##꿎": 6749,
      "##컫": 6750,
      "##꿋": 6751,
      "##º": 6752,
      "##💫": 6753,
      "##뼘": 6754,
      "##쇳": 6755,
      "##쩝": 6756,
      "##≤": 6757,
      "##랖": 6758,
      "##÷": 6759,
      "##빻": 6760,
      "##뺌": 6761,
      "##땃": 6762,
      "##∩": 6763,
      "##잴": 6764,
      "##⑪": 6765,
      "##믓": 6766,
      "##٩": 6767,
      "##셤": 6768,
      "##⑨": 6769,
      "##▣": 6770,
      "##뵙": 6771,
      "##켤": 6772,
      "##⬇": 6773,
      "##Ω": 6774,
      "##땄": 6775,
      "##챕": 6776,
      "##⠀": 6777,
      "##꿧": 6778,
      "##㎍": 6779,
      "##쌘": 6780,
      "##④": 6781,
      "##◦": 6782,
      "##뭣": 6783,
      "##📚": 6784,
      "##ᴗ": 6785,
      "##㉠": 6786,
      "##깠": 6787,
      "##П": 6788,
      "##О": 6789,
      "##붇": 6790,
      "##🌈": 6791,
      "##맺": 6792,
      "##≒": 6793,
      "##◉": 6794,
      "##큅": 6795,
      "##쫙": 6796,
      "##텄": 6797,
      "##떴": 6798,
      "##닳": 6799,
      "##뗄": 6800,
      "##┼": 6801,
      "##⭐": 6802,
      "##💞": 6803,
      "##└": 6804,
      "##🤦": 6805,
      "##㎛": 6806,
      "##ヽ": 6807,
      "##🎀": 6808,
      "##쑹": 6809,
      "##뛸": 6810,
      "##𐌅": 6811,
      "##🌷": 6812,
      "##뾱": 6813,
      "##콴": 6814,
      "##︎": 6815,
      "##۶": 6816,
      "##🙆": 6817,
      "##⇒": 6818,
      "##긱": 6819,
      "##뭘": 6820,
      "##겊": 6821,
      "##깼": 6822,
      "##삑": 6823,
      "##̫": 6824,
      "##짙": 6825,
      "##½": 6826,
      "##┴": 6827,
      "##넒": 6828,
      "##퐉": 6829,
      "##껐": 6830,
      "##엮": 6831,
      "##꾀": 6832,
      "##떫": 6833,
      "##탰": 6834,
      "##츰": 6835,
      "##㉡": 6836,
      "##㉢": 6837,
      "##꽥": 6838,
      "##⑦": 6839,
      "##㎓": 6840,
      "##々": 6841,
      "##ᵕ": 6842,
      "##И": 6843,
      "##왤": 6844,
      "##⬛": 6845,
      "##Đ": 6846,
      "##≪": 6847,
      "##툇": 6848,
      "##¥": 6849,
      "##🙇": 6850,
      "##Ⅵ": 6851,
      "##▨": 6852,
      "##©": 6853,
      "##쥑": 6854,
      "##쏩": 6855,
      "##☏": 6856,
      "##♨": 6857,
      "##↔": 6858,
      "##▪": 6859,
      "##▦": 6860,
      "##Ⅲ": 6861,
      "##〇": 6862,
      "##옅": 6863,
      "##휜": 6864,
      "##뗏": 6865,
      "##뤽": 6866,
      "##𐨛": 6867,
      "##멎": 6868,
      "##푯": 6869,
      "##뜹": 6870,
      "##㎒": 6871,
      "##엾": 6872,
      "##⬆": 6873,
      "##Å": 6874,
      "##̣": 6875,
      "##쟤": 6876,
      "##̩": 6877,
      "##잽": 6878,
      "##㎿": 6879,
      "##갉": 6880,
      "##➡": 6881,
      "##📌": 6882,
      "##∘": 6883,
      "##굵": 6884,
      "##Ⅳ": 6885,
      "##닻": 6886,
      "##몄": 6887,
      "##뗐": 6888,
      "##├": 6889,
      "##☕": 6890,
      "##뉩": 6891,
      "##ꈍ": 6892,
      "##묽": 6893,
      "##휙": 6894,
      "##ㄳ": 6895,
      "##꿇": 6896,
      "##뉠": 6897,
      "##얇": 6898,
      "##≠": 6899,
      "##⑩": 6900,
      "##📝": 6901,
      "##㎠": 6902,
      "##◾": 6903,
      "##ⓝ": 6904,
      "##ㅤ": 6905,
      "##✅": 6906,
      "##⏰": 6907,
      "##┠": 6908,
      "##┨": 6909,
      "##솎": 6910,
      "##∎": 6911,
      "##넋": 6912,
      "##읊": 6913,
      "##쯧": 6914,
      "##►": 6915,
      "##앎": 6916,
      "##Φ": 6917,
      "##📞": 6918,
      "##┈": 6919,
      "##㎥": 6920,
      "##씐": 6921,
      "##뭡": 6922,
      "##샜": 6923,
      "##❁": 6924,
      "##짰": 6925,
      "##띕": 6926,
      "##흄": 6927,
      "##쐈": 6928,
      "##돛": 6929,
      "##⑵": 6930,
      "##Ⅴ": 6931,
      "##💟": 6932,
      "##얜": 6933,
      "##땔": 6934,
      "##튄": 6935,
      "##짊": 6936,
      "##젋": 6937,
      "##띌": 6938,
      "##뵌": 6939,
      "##휑": 6940,
      "##찧": 6941,
      "##⦁": 6942,
      "##낡": 6943,
      "##쐴": 6944,
      "##▸": 6945,
      "##곪": 6946,
      "##⑴": 6947,
      "##੭": 6948,
      "##▴": 6949,
      "##엷": 6950,
      "##⇨": 6951,
      "##니다": 6952,
      "##으로": 6953,
      "##에서": 6954,
      "##습니다": 6955,
      "##00": 6956,
      "##er": 6957,
      "##지만": 6958,
      "##어요": 6959,
      "##는데": 6960,
      "##in": 6961,
      "th": 6962,
      "20": 6963,
      "##다고": 6964,
      "##on": 6965,
      "##ㅋㅋ": 6966,
      "##까지": 6967,
      "##at": 6968,
      "##라고": 6969,
      "##en": 6970,
      "##면서": 6971,
      "##세요": 6972,
      "##다는": 6973,
      "##or": 6974,
      "##es": 6975,
      "the": 6976,
      "##에게": 6977,
      "##an": 6978,
      "사용": 6979,
      "10": 6980,
      "사람": 6981,
      "##부터": 6982,
      "생각": 6983,
      "##어서": 6984,
      "##네요": 6985,
      "아니": 6986,
      "##ed": 6987,
      "##al": 6988,
      "##ar": 6989,
      "그리": 6990,
      "경우": 6991,
      "아이": 6992,
      "##입니다": 6993,
      "##ou": 6994,
      "때문": 6995,
      "##it": 6996,
      "우리": 6997,
      "##ing": 6998,
      "201": 6999,
      "너무": 7000,
      "가능": 7001,
      "##nd": 7002,
      "많이": 7003,
      "19": 7004,
      "그리고": 7005,
      "##보다": 7006,
      "##ic": 7007,
      "##라는": 7008,
      "##is": 7009,
      "##이나": 7010,
      "##다면": 7011,
      "in": 7012,
      "##아요": 7013,
      "##om": 7014,
      "##구요": 7015,
      "##ion": 7016,
      "##해서": 7017,
      "하나": 7018,
      "of": 7019,
      "ㅋㅋㅋ": 7020,
      "12": 7021,
      "함께": 7022,
      "##으면": 7023,
      "##as": 7024,
      "시간": 7025,
      "to": 7026,
      "##le": 7027,
      "만들": 7028,
      "ㅎㅎ": 7029,
      "11": 7030,
      "##re": 7031,
      "그래": 7032,
      "##더라": 7033,
      "다른": 7034,
      "오늘": 7035,
      "들어": 7036,
      "정말": 7037,
      "##으며": 7038,
      "필요": 7039,
      "##도록": 7040,
      "이상": 7041,
      "and": 7042,
      "##합니다": 7043,
      "##et": 7044,
      "##로그": 7045,
      "시작": 7046,
      "이용": 7047,
      "한국": 7048,
      "가장": 7049,
      "바로": 7050,
      "문제": 7051,
      "정도": 7052,
      "200": 7053,
      "##다가": 7054,
      "##이트": 7055,
      "##시간": 7056,
      "그러": 7057,
      "사진": 7058,
      "##el": 7059,
      "ㅋㅋ": 7060,
      "30": 7061,
      "이렇": 7062,
      "그런": 7063,
      "##거나": 7064,
      "##ent": 7065,
      "진행": 7066,
      "##대로": 7067,
      "##스트": 7068,
      "대한": 7069,
      "제품": 7070,
      "맛있": 7071,
      "15": 7072,
      "지금": 7073,
      "##한다": 7074,
      "##ct": 7075,
      "서울": 7076,
      "##니까": 7077,
      "##아서": 7078,
      "##il": 7079,
      "추천": 7080,
      "이런": 7081,
      "다시": 7082,
      "자신": 7083,
      "내용": 7084,
      "방법": 7085,
      "##처럼": 7086,
      "##레이": 7087,
      "마음": 7088,
      "100": 7089,
      "##ro": 7090,
      "모두": 7091,
      "다양": 7092,
      "이번": 7093,
      "그렇": 7094,
      "##답니다": 7095,
      "다음": 7096,
      "확인": 7097,
      "##st": 7098,
      "가지": 7099,
      "##id": 7100,
      "따라": 7101,
      "여러": 7102,
      "여기": 7103,
      "모든": 7104,
      "사실": 7105,
      "보이": 7106,
      "관련": 7107,
      "##더라구요": 7108,
      "가격": 7109,
      "##에요": 7110,
      "##가지": 7111,
      "##ig": 7112,
      "##am": 7113,
      "사이": 7114,
      "##비스": 7115,
      "##ol": 7116,
      "조금": 7117,
      "또한": 7118,
      "그래서": 7119,
      "부분": 7120,
      "같이": 7121,
      "##ot": 7122,
      "나오": 7123,
      "##학교": 7124,
      "준비": 7125,
      "지난": 7126,
      "##으니": 7127,
      "중요": 7128,
      "13": 7129,
      "모습": 7130,
      "##ut": 7131,
      "정보": 7132,
      "처음": 7133,
      "전문": 7134,
      "##ch": 7135,
      "미국": 7136,
      "18": 7137,
      "##ve": 7138,
      "하지만": 7139,
      "현재": 7140,
      "##이스": 7141,
      "느낌": 7142,
      "상기": 7143,
      "나타": 7144,
      "##ow": 7145,
      "그냥": 7146,
      "202": 7147,
      "14": 7148,
      "제공": 7149,
      "선택": 7150,
      "발생": 7151,
      "16": 7152,
      "또는": 7153,
      "##야기": 7154,
      "이제": 7155,
      "##ur": 7156,
      "어떤": 7157,
      "지역": 7158,
      "설명": 7159,
      "000": 7160,
      "이렇게": 7161,
      "지원": 7162,
      "피부": 7163,
      "##ay": 7164,
      "친구": 7165,
      "위해": 7166,
      "ㅠㅠ": 7167,
      "블로그": 7168,
      "개인": 7169,
      "안녕": 7170,
      "사랑": 7171,
      "합니다": 7172,
      "이후": 7173,
      "##려고": 7174,
      "Th": 7175,
      "진짜": 7176,
      "##는지": 7177,
      "이유": 7178,
      "결과": 7179,
      "상황": 7180,
      "제목": 7181,
      "특히": 7182,
      "##어야": 7183,
      "re": 7184,
      "##ce": 7185,
      "is": 7186,
      "아무": 7187,
      "25": 7188,
      "한다": 7189,
      "##ad": 7190,
      "직접": 7191,
      "도움": 7192,
      "위치": 7193,
      "포함": 7194,
      "일본": 7195,
      "상태": 7196,
      "##드리": 7197,
      "이야기": 7198,
      "대표": 7199,
      "사업": 7200,
      "모르": 7201,
      "중국": 7202,
      "##라이": 7203,
      "st": 7204,
      "관리": 7205,
      "건강": 7206,
      "하루": 7207,
      "##ation": 7208,
      "##까요": 7209,
      "어떻": 7210,
      "효과": 7211,
      "com": 7212,
      "요즘": 7213,
      "50": 7214,
      "이미": 7215,
      "##부분": 7216,
      "일반": 7217,
      "##는데요": 7218,
      "연구": 7219,
      "세계": 7220,
      "17": 7221,
      "추가": 7222,
      "##정도": 7223,
      "##나요": 7224,
      "##im": 7225,
      "계속": 7226,
      "for": 7227,
      "역시": 7228,
      "구매": 7229,
      "##인데": 7230,
      "24": 7231,
      "21": 7232,
      "구성": 7233,
      "아주": 7234,
      "be": 7235,
      "##라인": 7236,
      "##없이": 7237,
      "통해": 7238,
      "교육": 7239,
      "새로": 7240,
      "서비스": 7241,
      "주문": 7242,
      "질문": 7243,
      "##거리": 7244,
      "방문": 7245,
      "관계": 7246,
      "##스크": 7247,
      "설치": 7248,
      "##랜드": 7249,
      "##ly": 7250,
      "아래": 7251,
      "저희": 7252,
      "경기": 7253,
      "##ter": 7254,
      "없이": 7255,
      "사회": 7256,
      "on": 7257,
      "##이지": 7258,
      "##th": 7259,
      "기업": 7260,
      "정부": 7261,
      "기본": 7262,
      "음식": 7263,
      "##해야": 7264,
      "이름": 7265,
      "##라도": 7266,
      "##는다": 7267,
      "얼마": 7268,
      "운동": 7269,
      "##ver": 7270,
      "##어지": 7271,
      "##se": 7272,
      "어느": 7273,
      "##스타": 7274,
      "##라면": 7275,
      "##이크": 7276,
      "##ㅋㅋㅋㅋ": 7277,
      "감사": 7278,
      "22": 7279,
      "##므로": 7280,
      "먼저": 7281,
      "##ir": 7282,
      "국내": 7283,
      "##어도": 7284,
      "여행": 7285,
      "기술": 7286,
      "소개": 7287,
      "투자": 7288,
      "치료": 7289,
      "you": 7290,
      "최고": 7291,
      "##파트": 7292,
      "##od": 7293,
      "작업": 7294,
      "##로나": 7295,
      "##ul": 7296,
      "아직": 7297,
      "운영": 7298,
      "##이터": 7299,
      "##이어": 7300,
      "고객": 7301,
      "기준": 7302,
      "판매": 7303,
      "돌아": 7304,
      "시장": 7305,
      "물론": 7306,
      "엄마": 7307,
      "##통령": 7308,
      "##지요": 7309,
      "##자인": 7310,
      "00": 7311,
      "##스템": 7312,
      "wh": 7313,
      "40": 7314,
      "공부": 7315,
      "국민": 7316,
      "더욱": 7317,
      "##마다": 7318,
      "프로": 7319,
      "해당": 7320,
      "##벤트": 7321,
      "영화": 7322,
      "어려": 7323,
      "##ag": 7324,
      "자리": 7325,
      "전체": 7326,
      "##ith": 7327,
      "최근": 7328,
      "엄청": 7329,
      "차량": 7330,
      "##관리": 7331,
      "##으나": 7332,
      "과정": 7333,
      "최대": 7334,
      "##em": 7335,
      "that": 7336,
      "가족": 7337,
      "카페": 7338,
      "인터": 7339,
      "들어가": 7340,
      "후기": 7341,
      "기대": 7342,
      "##어나": 7343,
      "대통령": 7344,
      "##은데": 7345,
      "자연": 7346,
      "부산": 7347,
      "공간": 7348,
      "학생": 7349,
      "##000": 7350,
      "##시장": 7351,
      "위한": 7352,
      "##시키": 7353,
      "자기": 7354,
      "대상": 7355,
      "##정보": 7356,
      "기능": 7357,
      "경제": 7358,
      "게임": 7359,
      "개발": 7360,
      "계획": 7361,
      "상담": 7362,
      "올라": 7363,
      "##마트": 7364,
      "##지막": 7365,
      "전화": 7366,
      "##랍니다": 7367,
      "그러나": 7368,
      "스타": 7369,
      "결정": 7370,
      "##um": 7371,
      "##센터": 7372,
      "못하": 7373,
      "##동안": 7374,
      "al": 7375,
      "##리어": 7376,
      "23": 7377,
      "##un": 7378,
      "좋아": 7379,
      "##라서": 7380,
      "##위원": 7381,
      "##요일": 7382,
      "con": 7383,
      "완전": 7384,
      "##ab": 7385,
      "활용": 7386,
      "뉴스": 7387,
      "증가": 7388,
      "회사": 7389,
      "제주": 7390,
      "상품": 7391,
      "##기업": 7392,
      "자세": 7393,
      "머리": 7394,
      "메뉴": 7395,
      "무엇": 7396,
      "##개월": 7397,
      "예정": 7398,
      "학교": 7399,
      "자동": 7400,
      "포스": 7401,
      "이러": 7402,
      "##레스": 7403,
      "##위기": 7404,
      "##ess": 7405,
      "##나라": 7406,
      "##더니": 7407,
      "동안": 7408,
      "The": 7409,
      "##로그램": 7410,
      "마지막": 7411,
      "국가": 7412,
      "고민": 7413,
      "활동": 7414,
      "##ac": 7415,
      "참고": 7416,
      "신청": 7417,
      "##된다": 7418,
      "유지": 7419,
      "##가능": 7420,
      "실제": 7421,
      "언제": 7422,
      "의미": 7423,
      "코로나": 7424,
      "지나": 7425,
      "행복": 7426,
      "##est": 7427,
      "여성": 7428,
      "대학": 7429,
      "##하고": 7430,
      "##리스": 7431,
      "##만큼": 7432,
      "알려": 7433,
      "##ate": 7434,
      "기록": 7435,
      "적용": 7436,
      "##이버": 7437,
      "어디": 7438,
      "디자인": 7439,
      "연결": 7440,
      "##더라고": 7441,
      "이벤트": 7442,
      "##이드": 7443,
      "with": 7444,
      "올해": 7445,
      "##ri": 7446,
      "이루": 7447,
      "관심": 7448,
      "거의": 7449,
      "##리아": 7450,
      "안전": 7451,
      "it": 7452,
      "생활": 7453,
      "##스러": 7454,
      "##시아": 7455,
      "##거든": 7456,
      "참여": 7457,
      "as": 7458,
      "궁금": 7459,
      "아침": 7460,
      "실시": 7461,
      "##으시": 7462,
      "an": 7463,
      "##교육": 7464,
      "##us": 7465,
      "이것": 7466,
      "일단": 7467,
      "찾아": 7468,
      "이해": 7469,
      "매우": 7470,
      "##사업": 7471,
      "##ew": 7472,
      "##pp": 7473,
      "으로": 7474,
      "그런데": 7475,
      "##예요": 7476,
      "##igh": 7477,
      "##스터": 7478,
      "남자": 7479,
      "도시": 7480,
      "됩니다": 7481,
      "비교": 7482,
      "해결": 7483,
      "##고기": 7484,
      "대해": 7485,
      "여자": 7486,
      "##os": 7487,
      "##이랑": 7488,
      "영상": 7489,
      "영향": 7490,
      "말씀": 7491,
      "괜찮": 7492,
      "분석": 7493,
      "영어": 7494,
      "기존": 7495,
      "##이라고": 7496,
      "세상": 7497,
      "이동": 7498,
      "차이": 7499,
      "그것": 7500,
      "보다": 7501,
      "걱정": 7502,
      "환경": 7503,
      "##if": 7504,
      "고기": 7505,
      "기억": 7506,
      "에서": 7507,
      "상대": 7508,
      "pro": 7509,
      "바람": 7510,
      "##ere": 7511,
      "##거든요": 7512,
      "기다": 7513,
      "힘들": 7514,
      "##께서": 7515,
      "26": 7516,
      "co": 7517,
      "노력": 7518,
      "커피": 7519,
      "그래도": 7520,
      "시스템": 7521,
      "##머니": 7522,
      "##인지": 7523,
      "##인트": 7524,
      "##을까": 7525,
      "답변": 7526,
      "보내": 7527,
      "or": 7528,
      "de": 7529,
      "맛집": 7530,
      "정확": 7531,
      "평가": 7532,
      "##ers": 7533,
      "28": 7534,
      "일부": 7535,
      "얼굴": 7536,
      "성장": 7537,
      "내부": 7538,
      "현대": 7539,
      "ㅎㅎㅎ": 7540,
      "경험": 7541,
      "그림": 7542,
      "깔끔": 7543,
      "01": 7544,
      "따르": 7545,
      "프로그램": 7546,
      "특별": 7547,
      "변화": 7548,
      "분위기": 7549,
      "27": 7550,
      "오래": 7551,
      "선물": 7552,
      "만나": 7553,
      "##ant": 7554,
      "결국": 7555,
      "대부분": 7556,
      "##ra": 7557,
      "발표": 7558,
      "리뷰": 7559,
      "##pe": 7560,
      "자주": 7561,
      "근데": 7562,
      "##전자": 7563,
      "무료": 7564,
      "제작": 7565,
      "제대로": 7566,
      "포스팅": 7567,
      "유명": 7568,
      "알아": 7569,
      "지식": 7570,
      "주변": 7571,
      "##스럽": 7572,
      "##아야": 7573,
      "기간": 7574,
      "##ist": 7575,
      "성공": 7576,
      "##하세요": 7577,
      "삼성": 7578,
      "조사": 7579,
      "##동산": 7580,
      "60": 7581,
      "아파트": 7582,
      "기분": 7583,
      "자체": 7584,
      "청소": 7585,
      "수준": 7586,
      "오후": 7587,
      "##운데": 7588,
      "아닌": 7589,
      "배우": 7590,
      "##아이": 7591,
      "이날": 7592,
      "se": 7593,
      "##하는": 7594,
      "입니다": 7595,
      "##지역": 7596,
      "##자리": 7597,
      "충분": 7598,
      "화장": 7599,
      "##러스": 7600,
      "##oc": 7601,
      "소리": 7602,
      "간단": 7603,
      "##립니다": 7604,
      "사건": 7605,
      "여름": 7606,
      "만족": 7607,
      "##맛집": 7608,
      "##기간": 7609,
      "##ort": 7610,
      "##해요": 7611,
      "구조": 7612,
      "##이블": 7613,
      "31": 7614,
      "저녁": 7615,
      "피해": 7616,
      "부담": 7617,
      "문화": 7618,
      "##뉴스": 7619,
      "##심히": 7620,
      "다르": 7621,
      "스트": 7622,
      "##방법": 7623,
      "방식": 7624,
      "##기에": 7625,
      "##페이지": 7626,
      "안녕하세요": 7627,
      "상승": 7628,
      "199": 7629,
      "존재": 7630,
      "##ak": 7631,
      "항상": 7632,
      "##ill": 7633,
      "ex": 7634,
      "이어": 7635,
      "형성": 7636,
      "만큼": 7637,
      "본문": 7638,
      "우선": 7639,
      "##너지": 7640,
      "##디어": 7641,
      "표현": 7642,
      "된다": 7643,
      "구입": 7644,
      "##op": 7645,
      "##로부터": 7646,
      "작품": 7647,
      "그럼": 7648,
      "##카드": 7649,
      "매일": 7650,
      "대구": 7651,
      "29": 7652,
      "##테리어": 7653,
      "##군요": 7654,
      "시공": 7655,
      "##은행": 7656,
      "##and": 7657,
      "당시": 7658,
      "누구": 7659,
      "어렵": 7660,
      "가까": 7661,
      "지속": 7662,
      "2020": 7663,
      "sh": 7664,
      "ch": 7665,
      "인기": 7666,
      "##ㅠㅠ": 7667,
      "인터넷": 7668,
      "정리": 7669,
      "중심": 7670,
      "거리": 7671,
      "인간": 7672,
      "##소리": 7673,
      "서로": 7674,
      "각각": 7675,
      "어떻게": 7676,
      "본인": 7677,
      "의원": 7678,
      "처리": 7679,
      "보통": 7680,
      "##──": 7681,
      "작성": 7682,
      "##로서": 7683,
      "마련": 7684,
      "입장": 7685,
      "후보": 7686,
      "어린": 7687,
      "재미": 7688,
      "내려": 7689,
      "기자": 7690,
      "##ight": 7691,
      "일정": 7692,
      "상당": 7693,
      "시험": 7694,
      "열심히": 7695,
      "##우스": 7696,
      "##가요": 7697,
      "경찰": 7698,
      "##때문": 7699,
      "생산": 7700,
      "바라": 7701,
      "좋아하": 7702,
      "500": 7703,
      "만드": 7704,
      "스마트": 7705,
      "부족": 7706,
      "강화": 7707,
      "##주택": 7708,
      "네이버": 7709,
      "##라며": 7710,
      "부모": 7711,
      "##기관": 7712,
      "저렴": 7713,
      "모델": 7714,
      "당신": 7715,
      "##ld": 7716,
      "현장": 7717,
      "부탁": 7718,
      "자유": 7719,
      "##자기": 7720,
      "예상": 7721,
      "인정": 7722,
      "그대로": 7723,
      "##ore": 7724,
      "느끼": 7725,
      "소비": 7726,
      "브랜드": 7727,
      "데이터": 7728,
      "지방": 7729,
      "발명": 7730,
      "개선": 7731,
      "##려면": 7732,
      "지난해": 7733,
      "kr": 7734,
      "##ity": 7735,
      "##더라도": 7736,
      "##ain": 7737,
      "##업체": 7738,
      "by": 7739,
      "떨어": 7740,
      "거래": 7741,
      "혼자": 7742,
      "증상": 7743,
      "병원": 7744,
      "행사": 7745,
      "##주의": 7746,
      "##50": 7747,
      "수업": 7748,
      "할인": 7749,
      "금융": 7750,
      "공급": 7751,
      "따라서": 7752,
      "##생활": 7753,
      "가운데": 7754,
      "인천": 7755,
      "방향": 7756,
      "##들이": 7757,
      "##한테": 7758,
      "보여": 7759,
      "##사진": 7760,
      "주차": 7761,
      "전국": 7762,
      "##보험": 7763,
      "공개": 7764,
      "고려": 7765,
      "다녀": 7766,
      "얼마나": 7767,
      "##더라고요": 7768,
      "판단": 7769,
      "업체": 7770,
      "비슷": 7771,
      "밝혔": 7772,
      "##여행": 7773,
      "사고": 7774,
      "확실": 7775,
      "해야": 7776,
      "신경": 7777,
      "올리": 7778,
      "##지원": 7779,
      "드리": 7780,
      "겨울": 7781,
      "요구": 7782,
      "was": 7783,
      "계약": 7784,
      "##rom": 7785,
      "형태": 7786,
      "##이션": 7787,
      "정상": 7788,
      "In": 7789,
      "at": 7790,
      "##ff": 7791,
      "미리": 7792,
      "방송": 7793,
      "오전": 7794,
      "80": 7795,
      "he": 7796,
      "정치": 7797,
      "제거": 7798,
      "##art": 7799,
      "종류": 7800,
      "집중": 7801,
      "대비": 7802,
      "su": 7803,
      "약간": 7804,
      "정신": 7805,
      "##민국": 7806,
      "날씨": 7807,
      "##iv": 7808,
      "##무리": 7809,
      "건물": 7810,
      "예약": 7811,
      "체험": 7812,
      "아기": 7813,
      "생기": 7814,
      "연락": 7815,
      "##ive": 7816,
      "부드": 7817,
      "아름": 7818,
      "나라": 7819,
      "##시설": 7820,
      "##셔서": 7821,
      "비용": 7822,
      "등장": 7823,
      "are": 7824,
      "70": 7825,
      "2021": 7826,
      "문의": 7827,
      "역사": 7828,
      "노래": 7829,
      "##번호": 7830,
      "보호": 7831,
      "카드": 7832,
      "해외": 7833,
      "다니": 7834,
      "따로": 7835,
      "ha": 7836,
      "목적": 7837,
      "전기": 7838,
      "##pt": 7839,
      "##보이": 7840,
      "원인": 7841,
      "주요": 7842,
      "도착": 7843,
      "##ment": 7844,
      "살짝": 7845,
      "온라인": 7846,
      "나가": 7847,
      "##고자": 7848,
      "국제": 7849,
      "역할": 7850,
      "오랜": 7851,
      "##제품": 7852,
      "##다니": 7853,
      "주장": 7854,
      "자동차": 7855,
      "단계": 7856,
      "해서": 7857,
      "산업": 7858,
      "완성": 7859,
      "전망": 7860,
      "##카페": 7861,
      "검사": 7862,
      "##문화": 7863,
      "##ction": 7864,
      "32": 7865,
      "##ue": 7866,
      "나이": 7867,
      "##경제": 7868,
      "규모": 7869,
      "원래": 7870,
      "주말": 7871,
      "##퓨터": 7872,
      "추진": 7873,
      "보험": 7874,
      "##수록": 7875,
      "##환경": 7876,
      "미래": 7877,
      "##아지": 7878,
      "2019": 7879,
      "가득": 7880,
      "발견": 7881,
      "그녀": 7882,
      "##위원회": 7883,
      "바이": 7884,
      "영업": 7885,
      "##스로": 7886,
      "환자": 7887,
      "##세대": 7888,
      "목표": 7889,
      "이전": 7890,
      "프리": 7891,
      "검색": 7892,
      "TV": 7893,
      "공격": 7894,
      "##나무": 7895,
      "크기": 7896,
      "분야": 7897,
      "##og": 7898,
      "제조": 7899,
      "마시": 7900,
      "가입": 7901,
      "직원": 7902,
      "제일": 7903,
      "##ell": 7904,
      "##토리": 7905,
      "확대": 7906,
      "##학원": 7907,
      "빠르": 7908,
      "다만": 7909,
      "매장": 7910,
      "##버지": 7911,
      "##전문": 7912,
      "##산업": 7913,
      "외국": 7914,
      "움직": 7915,
      "달리": 7916,
      "정책": 7917,
      "##게요": 7918,
      "02": 7919,
      "이미지": 7920,
      "업무": 7921,
      "##이상": 7922,
      "St": 7923,
      "설정": 7924,
      "##ine": 7925,
      "주택": 7926,
      "전자": 7927,
      "선정": 7928,
      "결혼": 7929,
      "##도시": 7930,
      "시원": 7931,
      "출시": 7932,
      "안정": 7933,
      "여러분": 7934,
      "빨리": 7935,
      "동시": 7936,
      "부동산": 7937,
      "홈페이지": 7938,
      "강추": 7939,
      "북한": 7940,
      "35": 7941,
      "##하나": 7942,
      "##디오": 7943,
      "마무리": 7944,
      "##연구": 7945,
      "능력": 7946,
      "##사지": 7947,
      "##정부": 7948,
      "편하": 7949,
      "수술": 7950,
      "특징": 7951,
      "2018": 7952,
      "얘기": 7953,
      "기회": 7954,
      "36": 7955,
      "##ud": 7956,
      "한편": 7957,
      "교수": 7958,
      "선생": 7959,
      "위험": 7960,
      "사장": 7961,
      "순간": 7962,
      "변경": 7963,
      "경쟁": 7964,
      "대신": 7965,
      "스타일": 7966,
      "관계자": 7967,
      "등록": 7968,
      "대한민국": 7969,
      "##으면서": 7970,
      "##기술": 7971,
      "가져": 7972,
      "재료": 7973,
      "##이어트": 7974,
      "im": 7975,
      "not": 7976,
      "아마": 7977,
      "니다": 7978,
      "감소": 7979,
      "그렇게": 7980,
      "전혀": 7981,
      "##프트": 7982,
      "모양": 7983,
      "평균": 7984,
      "##ia": 7985,
      "##으로써": 7986,
      "##영상": 7987,
      "깨끗": 7988,
      "자료": 7989,
      "##사람": 7990,
      "발전": 7991,
      "식사": 7992,
      "국회": 7993,
      "##크림": 7994,
      "이곳": 7995,
      "책임": 7996,
      "##병원": 7997,
      "##all": 7998,
      "주인": 7999,
      "아들": 8000,
      "인테리어": 8001,
      "유리": 8002,
      "##됩니다": 8003,
      "음악": 8004,
      "스스로": 8005,
      "##운동": 8006,
      "##pl": 8007,
      "행동": 8008,
      "오픈": 8009,
      "##회사": 8010,
      "시행": 8011,
      "따뜻": 8012,
      "this": 8013,
      "이거": 8014,
      "##ame": 8015,
      "선수": 8016,
      "알아보": 8017,
      "전문가": 8018,
      "##공사": 8019,
      "300": 8020,
      "##고요": 8021,
      "자격": 8022,
      "요리": 8023,
      "컬러": 8024,
      "중간": 8025,
      "클릭": 8026,
      "안내": 8027,
      "인사": 8028,
      "##데요": 8029,
      "무슨": 8030,
      "민주": 8031,
      "##라스": 8032,
      "잘못": 8033,
      "##아도": 8034,
      "당연": 8035,
      "##드립니다": 8036,
      "##사회": 8037,
      "##조건": 8038,
      "예쁘": 8039,
      "##ang": 8040,
      "어린이": 8041,
      "인생": 8042,
      "포장": 8043,
      "새로운": 8044,
      "##BS": 8045,
      "코스": 8046,
      "90": 8047,
      "필수": 8048,
      "##같이": 8049,
      "조건": 8050,
      "즐거": 8051,
      "##밖에": 8052,
      "가치": 8053,
      "남편": 8054,
      "블랙": 8055,
      "03": 8056,
      "마치": 8057,
      "제외": 8058,
      "33": 8059,
      "높이": 8060,
      "##학생": 8061,
      "##추천": 8062,
      "컴퓨터": 8063,
      "##our": 8064,
      "시대": 8065,
      "일상": 8066,
      "공식": 8067,
      "사이즈": 8068,
      "##바이": 8069,
      "##ack": 8070,
      "##려는": 8071,
      "##end": 8072,
      "에어": 8073,
      "we": 8074,
      "거기": 8075,
      "##개발": 8076,
      "지급": 8077,
      "수행": 8078,
      "외부": 8079,
      "##바일": 8080,
      "##ard": 8081,
      "가정": 8082,
      "굉장": 8083,
      "광주": 8084,
      "동일": 8085,
      "하늘": 8086,
      "촬영": 8087,
      "중앙": 8088,
      "지하": 8089,
      "살펴": 8090,
      "까지": 8091,
      "지지": 8092,
      "최소": 8093,
      "##메라": 8094,
      "##ust": 8095,
      "tr": 8096,
      "from": 8097,
      "##ect": 8098,
      "##이다": 8099,
      "회원": 8100,
      "고급": 8101,
      "각종": 8102,
      "##ok": 8103,
      "반응": 8104,
      "라고": 8105,
      "위해서": 8106,
      "공동": 8107,
      "2017": 8108,
      "##피스": 8109,
      "꾸준": 8110,
      "기사": 8111,
      "##투자": 8112,
      "성분": 8113,
      "라이": 8114,
      "점심": 8115,
      "##관계": 8116,
      "##학년": 8117,
      "현실": 8118,
      "호텔": 8119,
      "시기": 8120,
      "##ong": 8121,
      "##치료": 8122,
      "##과정": 8123,
      "##ap": 8124,
      "##의원": 8125,
      "나무": 8126,
      "불편": 8127,
      "혹은": 8128,
      "강조": 8129,
      "바다": 8130,
      "##ear": 8131,
      "주식": 8132,
      "##단계": 8133,
      "이하": 8134,
      "이웃": 8135,
      "대출": 8136,
      "반대": 8137,
      "장점": 8138,
      "me": 8139,
      "특성": 8140,
      "기다리": 8141,
      "관광": 8142,
      "##리즈": 8143,
      "학습": 8144,
      "##iz": 8145,
      "2016": 8146,
      "아름다": 8147,
      "45": 8148,
      "따른": 8149,
      "수익": 8150,
      "주민": 8151,
      "##라마": 8152,
      "굉장히": 8153,
      "다리": 8154,
      "사무": 8155,
      "예전": 8156,
      "공유": 8157,
      "##구나": 8158,
      "##등학교": 8159,
      "##을까요": 8160,
      "cm": 8161,
      "##드시": 8162,
      "##ure": 8163,
      "소재": 8164,
      "##ial": 8165,
      "영양": 8166,
      "##버리": 8167,
      "바닥": 8168,
      "##사항": 8169,
      "분양": 8170,
      "##사이": 8171,
      "예방": 8172,
      "나온": 8173,
      "훨씬": 8174,
      "##ies": 8175,
      "의사": 8176,
      "##텐츠": 8177,
      "##age": 8178,
      "있는": 8179,
      "평소": 8180,
      "공기": 8181,
      "05": 8182,
      "##공원": 8183,
      "혹시": 8184,
      "198": 8185,
      "##히려": 8186,
      "have": 8187,
      "2015": 8188,
      "에너지": 8189,
      "대전": 8190,
      "광고": 8191,
      "##고차": 8192,
      "어제": 8193,
      "즐기": 8194,
      "속도": 8195,
      "과거": 8196,
      "어울": 8197,
      "##서비스": 8198,
      "조성": 8199,
      "절대": 8200,
      "실제로": 8201,
      "##로벌": 8202,
      "전달": 8203,
      "살아": 8204,
      "강남": 8205,
      "사라": 8206,
      "##nt": 8207,
      "대해서": 8208,
      "오히려": 8209,
      "하나님": 8210,
      "##국수": 8211,
      "##가격": 8212,
      "단순": 8213,
      "나중": 8214,
      "교체": 8215,
      "소스": 8216,
      "##거래": 8217,
      "34": 8218,
      "적극": 8219,
      "LG": 8220,
      "##버스": 8221,
      "오른": 8222,
      "##조사": 8223,
      "##지털": 8224,
      "##ip": 8225,
      "##으로서": 8226,
      "주로": 8227,
      "반드시": 8228,
      "하이": 8229,
      "장치": 8230,
      "주소": 8231,
      "바랍니다": 8232,
      "매출": 8233,
      "이사": 8234,
      "##무원": 8235,
      "##활동": 8236,
      "다이어트": 8237,
      "제시": 8238,
      "모바일": 8239,
      "비롯": 8240,
      "##세계": 8241,
      "충분히": 8242,
      "제한": 8243,
      "나타나": 8244,
      "감정": 8245,
      "기타": 8246,
      "확보": 8247,
      "##qu": 8248,
      "cl": 8249,
      "색상": 8250,
      "만약": 8251,
      "나왔": 8252,
      "##ide": 8253,
      "회복": 8254,
      "##터리": 8255,
      "작가": 8256,
      "##호사": 8257,
      "의견": 8258,
      "can": 8259,
      "가을": 8260,
      "##문제": 8261,
      "금액": 8262,
      "Ch": 8263,
      "완료": 8264,
      "한번": 8265,
      "있다": 8266,
      "은행": 8267,
      "갑자기": 8268,
      "##able": 8269,
      "##릭터": 8270,
      "라는": 8271,
      "##dd": 8272,
      "기초": 8273,
      "포인트": 8274,
      "구경": 8275,
      "사이트": 8276,
      "ㅜㅜ": 8277,
      "김치": 8278,
      "별로": 8279,
      "##해도": 8280,
      "대응": 8281,
      "아빠": 8282,
      "##가락": 8283,
      "직장": 8284,
      "##ub": 8285,
      "##ould": 8286,
      "2014": 8287,
      "##대표": 8288,
      "##처리": 8289,
      "##리카": 8290,
      "시민": 8291,
      "##인가": 8292,
      "측정": 8293,
      "물건": 8294,
      "사항": 8295,
      "교통": 8296,
      "us": 8297,
      "##청소": 8298,
      "버스": 8299,
      "반복": 8300,
      "적당": 8301,
      "##카오": 8302,
      "장소": 8303,
      "원하": 8304,
      "기관": 8305,
      "표시": 8306,
      "##타민": 8307,
      "##ass": 8308,
      "##ast": 8309,
      "전시": 8310,
      "고정": 8311,
      "달라": 8312,
      "##ich": 8313,
      "##ind": 8314,
      "링크": 8315,
      "베이": 8316,
      "매력": 8317,
      "스트레스": 8318,
      "all": 8319,
      "아버지": 8320,
      "영국": 8321,
      "취업": 8322,
      "##친구": 8323,
      "인증": 8324,
      "##하게": 8325,
      "##대학교": 8326,
      "검찰": 8327,
      "의료": 8328,
      "##ail": 8329,
      "신고": 8330,
      "사전": 8331,
      "pl": 8332,
      "##다며": 8333,
      "공연": 8334,
      "실내": 8335,
      "소비자": 8336,
      "##20": 8337,
      "과학": 8338,
      "사례": 8339,
      "조선": 8340,
      "go": 8341,
      "편안": 8342,
      "pr": 8343,
      "조절": 8344,
      "행정": 8345,
      "##마을": 8346,
      "우수": 8347,
      "수도": 8348,
      "##상담": 8349,
      "##프로": 8350,
      "테이블": 8351,
      "##가루": 8352,
      "시설": 8353,
      "유럽": 8354,
      "##ib": 8355,
      "다가": 8356,
      "경기도": 8357,
      "res": 8358,
      "사망": 8359,
      "보유": 8360,
      "임대": 8361,
      "파악": 8362,
      "만든": 8363,
      "##port": 8364,
      "뛰어": 8365,
      "요청": 8366,
      "체크": 8367,
      "##니스": 8368,
      "##더군요": 8369,
      "대화": 8370,
      "##게임": 8371,
      "가슴": 8372,
      "##ik": 8373,
      "넘어": 8374,
      "##ex": 8375,
      "조직": 8376,
      "최초": 8377,
      "##한국": 8378,
      "스크": 8379,
      "수사": 8380,
      "캐릭터": 8381,
      "건조": 8382,
      "##래도": 8383,
      "##니당": 8384,
      "##out": 8385,
      "지적": 8386,
      "##든지": 8387,
      "완벽": 8388,
      "근처": 8389,
      "마스크": 8390,
      "##ER": 8391,
      "수학": 8392,
      "휴대": 8393,
      "기반": 8394,
      "주의": 8395,
      "부르": 8396,
      "내일": 8397,
      "##서울": 8398,
      "지정": 8399,
      "인식": 8400,
      "분명": 8401,
      "내년": 8402,
      "##전히": 8403,
      "치즈": 8404,
      "37": 8405,
      "회장": 8406,
      "떨어지": 8407,
      "##per": 8408,
      "##단지": 8409,
      "나와": 8410,
      "취득": 8411,
      "##ome": 8412,
      "##으로부터": 8413,
      "##포츠": 8414,
      "지도": 8415,
      "꼼꼼": 8416,
      "남성": 8417,
      "##으니까": 8418,
      "int": 8419,
      "글로벌": 8420,
      "우려": 8421,
      "대하": 8422,
      "드러": 8423,
      "##머리": 8424,
      "##가구": 8425,
      "롯데": 8426,
      "2013": 8427,
      "##one": 8428,
      "##셔야": 8429,
      "동물": 8430,
      "##gh": 8431,
      "입력": 8432,
      "단어": 8433,
      "38": 8434,
      "고양": 8435,
      "하락": 8436,
      "Wh": 8437,
      "올려": 8438,
      "##ase": 8439,
      "그때": 8440,
      "개최": 8441,
      "소식": 8442,
      "아프": 8443,
      "일어": 8444,
      "도전": 8445,
      "인상": 8446,
      "##출장": 8447,
      "mm": 8448,
      "##ost": 8449,
      "##회의": 8450,
      "##ated": 8451,
      "설계": 8452,
      "기념": 8453,
      "전략": 8454,
      "핵심": 8455,
      "통신": 8456,
      "##ical": 8457,
      "##ice": 8458,
      "느껴": 8459,
      "##10": 8460,
      "쇼핑": 8461,
      "나누": 8462,
      "##rou": 8463,
      "if": 8464,
      "do": 8465,
      "내리": 8466,
      "##갈비": 8467,
      "2000": 8468,
      "##대학": 8469,
      "섭취": 8470,
      "위하": 8471,
      "장기": 8472,
      "건설": 8473,
      "ab": 8474,
      "개념": 8475,
      "크림": 8476,
      "##진다": 8477,
      "일어나": 8478,
      "대체": 8479,
      "##복지": 8480,
      "##플레이": 8481,
      "양념": 8482,
      "##인데요": 8483,
      "상당히": 8484,
      "##기자": 8485,
      "조합": 8486,
      "PC": 8487,
      "아쉬": 8488,
      "2012": 8489,
      "04": 8490,
      "구체": 8491,
      "##라운": 8492,
      "##박스": 8493,
      "해요": 8494,
      "건축": 8495,
      "##워크": 8496,
      "도와": 8497,
      "le": 8498,
      "감염": 8499,
      "##지방": 8500,
      "##다리": 8501,
      "점점": 8502,
      "##등급": 8503,
      "##랑스": 8504,
      "신용": 8505,
      "친절": 8506,
      "활성": 8507,
      "영역": 8508,
      "SK": 8509,
      "분리": 8510,
      "잠시": 8511,
      "최종": 8512,
      "##우리": 8513,
      "##상태": 8514,
      "여부": 8515,
      "##세트": 8516,
      "계산": 8517,
      "자극": 8518,
      "초기": 8519,
      "##ec": 8520,
      "종합": 8521,
      "주제": 8522,
      "경영": 8523,
      "##공간": 8524,
      "카메라": 8525,
      "장관": 8526,
      "핸드": 8527,
      "시즌": 8528,
      "##기능": 8529,
      "플레이": 8530,
      "통증": 8531,
      "차지": 8532,
      "저장": 8533,
      "##러드": 8534,
      "오르": 8535,
      "오랜만": 8536,
      "현상": 8537,
      "55": 8538,
      "담당": 8539,
      "학원": 8540,
      "착용": 8541,
      "수입": 8542,
      "배송": 8543,
      "##대출": 8544,
      "##ans": 8545,
      "여유": 8546,
      "꾸준히": 8547,
      "주방": 8548,
      "전부": 8549,
      "##여서": 8550,
      "##사고": 8551,
      "##듯이": 8552,
      "##시켜": 8553,
      "스테": 8554,
      "##마자": 8555,
      "##검사": 8556,
      "##ED": 8557,
      "편리": 8558,
      "댓글": 8559,
      "강의": 8560,
      "습니다": 8561,
      "의해": 8562,
      "##ime": 8563,
      "010": 8564,
      "##잖아요": 8565,
      "졸업": 8566,
      "상관": 8567,
      "##스테": 8568,
      "##IN": 8569,
      "##60": 8570,
      "cont": 8571,
      "##한다고": 8572,
      "작년": 8573,
      "전통": 8574,
      "화이트": 8575,
      "더불": 8576,
      "##★★": 8577,
      "전용": 8578,
      "##계획": 8579,
      "##찬가지": 8580,
      "귀여": 8581,
      "디지털": 8582,
      "금지": 8583,
      "반영": 8584,
      "##상품": 8585,
      "##금융": 8586,
      "##인다": 8587,
      "블루": 8588,
      "미니": 8589,
      "들어오": 8590,
      "도입": 8591,
      "##ult": 8592,
      "레이": 8593,
      "메인": 8594,
      "선거": 8595,
      "온도": 8596,
      "##ㅋㅋㅋㅋㅋㅋㅋㅋ": 8597,
      "앞서": 8598,
      "마찬가지": 8599,
      "장착": 8600,
      "가끔": 8601,
      "라인": 8602,
      "en": 8603,
      "##느냐": 8604,
      "##시험": 8605,
      "성능": 8606,
      "##ie": 8607,
      "진정": 8608,
      "스마트폰": 8609,
      "단지": 8610,
      "타이": 8611,
      "강력": 8612,
      "냄새": 8613,
      "##분기": 8614,
      "출처": 8615,
      "바르": 8616,
      "부터": 8617,
      "신규": 8618,
      "##ach": 8619,
      "계시": 8620,
      "희망": 8621,
      "채널": 8622,
      "배치": 8623,
      "##달러": 8624,
      "도로": 8625,
      "근육": 8626,
      "파일": 8627,
      "수분": 8628,
      "my": 8629,
      "노동": 8630,
      "인해": 8631,
      "화장실": 8632,
      "09": 8633,
      "48": 8634,
      "살펴보": 8635,
      "공정": 8636,
      "특정": 8637,
      "39": 8638,
      "##주일": 8639,
      "효율": 8640,
      "##위치": 8641,
      "##고서": 8642,
      "이루어": 8643,
      "##아파트": 8644,
      "2010": 8645,
      "모집": 8646,
      "##av": 8647,
      "wor": 8648,
      "해도": 8649,
      "##트리": 8650,
      "출발": 8651,
      "등등": 8652,
      "제도": 8653,
      "확진": 8654,
      "참가": 8655,
      "##30": 8656,
      "조정": 8657,
      "독일": 8658,
      "감독": 8659,
      "##자마자": 8660,
      "1000": 8661,
      "공사": 8662,
      "2011": 8663,
      "바꾸": 8664,
      "##니아": 8665,
      "##ile": 8666,
      "보관": 8667,
      "##머지": 8668,
      "##그룹": 8669,
      "##했다": 8670,
      "##평가": 8671,
      "운전": 8672,
      "구축": 8673,
      "06": 8674,
      "진단": 8675,
      "이쁘": 8676,
      "마을": 8677,
      "다행": 8678,
      "상세": 8679,
      "##70": 8680,
      "동영상": 8681,
      "##orm": 8682,
      "본격": 8683,
      "드라마": 8684,
      "어머니": 8685,
      "##으므로": 8686,
      "충전": 8687,
      "혐의": 8688,
      "##신청": 8689,
      "비타민": 8690,
      "식당": 8691,
      "장애": 8692,
      "참석": 8693,
      "올라가": 8694,
      "##작업": 8695,
      "##ence": 8696,
      "##나가": 8697,
      "반면": 8698,
      "방지": 8699,
      "##케팅": 8700,
      "##드릴": 8701,
      "전세": 8702,
      "수출": 8703,
      "##는가": 8704,
      "울산": 8705,
      "신기": 8706,
      "##cc": 8707,
      "둘러": 8708,
      "##데이": 8709,
      "##던데": 8710,
      "##act": 8711,
      "입구": 8712,
      "##ry": 8713,
      "42": 8714,
      "규정": 8715,
      "##NS": 8716,
      "##기준": 8717,
      "범위": 8718,
      "##ace": 8719,
      "솔직": 8720,
      "부드러": 8721,
      "덕분": 8722,
      "크리스": 8723,
      "너무나": 8724,
      "벌써": 8725,
      "강아지": 8726,
      "강원": 8727,
      "위원": 8728,
      "##하기": 8729,
      "혜택": 8730,
      "##ath": 8731,
      "##ign": 8732,
      "##자동": 8733,
      "comp": 8734,
      "요소": 8735,
      "##증권": 8736,
      "바뀌": 8737,
      "나머지": 8738,
      "세트": 8739,
      "시리즈": 8740,
      "##장치": 8741,
      "프랑스": 8742,
      "##경우": 8743,
      "가르": 8744,
      "불안": 8745,
      "가구": 8746,
      "제출": 8747,
      "마감": 8748,
      "##경기": 8749,
      "확실히": 8750,
      "다운": 8751,
      "44": 8752,
      "##소득": 8753,
      "화면": 8754,
      "허리": 8755,
      "구분": 8756,
      "이르": 8757,
      "120": 8758,
      "인도": 8759,
      "입주": 8760,
      "이때": 8761,
      "공공": 8762,
      "##도로": 8763,
      "통합": 8764,
      "실패": 8765,
      "전환": 8766,
      "수원": 8767,
      "##ep": 8768,
      "##단체": 8769,
      "다이": 8770,
      "##ory": 8771,
      "해석": 8772,
      "노트": 8773,
      "보도": 8774,
      "직업": 8775,
      "대형": 8776,
      "##ber": 8777,
      "전쟁": 8778,
      "홍보": 8779,
      "##여야": 8780,
      "관한": 8781,
      "your": 8782,
      "##int": 8783,
      "신호": 8784,
      "km": 8785,
      "##시스템": 8786,
      "##ge": 8787,
      "카카오": 8788,
      "08": 8789,
      "41": 8790,
      "결합": 8791,
      "돼지": 8792,
      "애플": 8793,
      "##젝트": 8794,
      "수리": 8795,
      "국물": 8796,
      "향상": 8797,
      "##보드": 8798,
      "##스토": 8799,
      "기름": 8800,
      "바탕": 8801,
      "언급": 8802,
      "여전히": 8803,
      "음료": 8804,
      "나름": 8805,
      "재미있": 8806,
      "약속": 8807,
      "고소": 8808,
      "생명": 8809,
      "소득": 8810,
      "##정책": 8811,
      "실험": 8812,
      "연기": 8813,
      "키우": 8814,
      "합격": 8815,
      "포기": 8816,
      "but": 8817,
      "부정": 8818,
      "##등록": 8819,
      "##통신": 8820,
      "부위": 8821,
      "##가족": 8822,
      "성격": 8823,
      "out": 8824,
      "인물": 8825,
      "##비용": 8826,
      "외국인": 8827,
      "별도": 8828,
      "보장": 8829,
      "ar": 8830,
      "협력": 8831,
      "맥주": 8832,
      "목소리": 8833,
      "미세": 8834,
      "참조": 8835,
      "##계약": 8836,
      "단체": 8837,
      "제어": 8838,
      "kg": 8839,
      "##페인": 8840,
      "수상": 8841,
      "400": 8842,
      "사과": 8843,
      "주인공": 8844,
      "아무래도": 8845,
      "정의": 8846,
      "생성": 8847,
      "##아니": 8848,
      "52": 8849,
      "수요": 8850,
      "up": 8851,
      "매매": 8852,
      "자꾸": 8853,
      "##로드": 8854,
      "##ook": 8855,
      "제주도": 8856,
      "##작용": 8857,
      "will": 8858,
      "##보호": 8859,
      "ㅋㅋㅋㅋ": 8860,
      "어떠": 8861,
      "51": 8862,
      "##이프": 8863,
      "접근": 8864,
      "##일리": 8865,
      "당연히": 8866,
      "##과학": 8867,
      "나타내": 8868,
      "자격증": 8869,
      "##워서": 8870,
      "##주시": 8871,
      "끝나": 8872,
      "##미엄": 8873,
      "흡수": 8874,
      "99": 8875,
      "신뢰": 8876,
      "##케어": 8877,
      "조심": 8878,
      "##민주": 8879,
      "##마리": 8880,
      "최대한": 8881,
      "중소": 8882,
      "아무리": 8883,
      "가게": 8884,
      "근로": 8885,
      "어찌": 8886,
      "동생": 8887,
      "IT": 8888,
      "자랑": 8889,
      "늘어": 8890,
      "조치": 8891,
      "당첨": 8892,
      "##ake": 8893,
      "청소년": 8894,
      "Al": 8895,
      "##지구": 8896,
      "app": 8897,
      "성적": 8898,
      "new": 8899,
      "##규모": 8900,
      "##튜브": 8901,
      "##시지": 8902,
      "시절": 8903,
      "불구": 8904,
      "##일보": 8905,
      "예술": 8906,
      "아이템": 8907,
      "연습": 8908,
      "##ary": 8909,
      "##대상": 8910,
      "##효과": 8911,
      "##하여": 8912,
      "불리": 8913,
      "##ous": 8914,
      "##이너": 8915,
      "비밀": 8916,
      "##레임": 8917,
      "창업": 8918,
      "근무": 8919,
      "##리티": 8920,
      "##가스": 8921,
      "##ite": 8922,
      "##cl": 8923,
      "##이익": 8924,
      "함유": 8925,
      "무리": 8926,
      "##본부": 8927,
      "##ph": 8928,
      "식물": 8929,
      "##파크": 8930,
      "지구": 8931,
      "편의": 8932,
      "##코스": 8933,
      "기획": 8934,
      "계란": 8935,
      "질환": 8936,
      "150": 8937,
      "##을지": 8938,
      "75": 8939,
      "##이사": 8940,
      "##ition": 8941,
      "소속": 8942,
      "출연": 8943,
      "##스러운": 8944,
      "걸리": 8945,
      "제안": 8946,
      "행위": 8947,
      "빠지": 8948,
      "개정": 8949,
      "시도": 8950,
      "##메뉴": 8951,
      "##fer": 8952,
      "왼쪽": 8953,
      "출신": 8954,
      "##방송": 8955,
      "##ose": 8956,
      "실력": 8957,
      "07": 8958,
      "##리트": 8959,
      "##ww": 8960,
      "무조건": 8961,
      "##하우스": 8962,
      "dis": 8963,
      "##BC": 8964,
      "##반기": 8965,
      "천연": 8966,
      "부드럽": 8967,
      "회전": 8968,
      "##ens": 8969,
      "has": 8970,
      "청년": 8971,
      "2009": 8972,
      "##마스": 8973,
      "43": 8974,
      "언니": 8975,
      "오른쪽": 8976,
      "장비": 8977,
      "##으러": 8978,
      "장난": 8979,
      "##트워크": 8980,
      "헤어": 8981,
      "풍부": 8982,
      "##협회": 8983,
      "##자료": 8984,
      "##ance": 8985,
      "##eth": 8986,
      "##신문": 8987,
      "##길래": 8988,
      "##놀이": 8989,
      "언론": 8990,
      "ㅋㅋㅋㅋㅋ": 8991,
      "새벽": 8992,
      "그룹": 8993,
      "적절": 8994,
      "채택": 8995,
      "항공": 8996,
      "문자": 8997,
      "배경": 8998,
      "ne": 8999,
      "전원": 9000,
      "##져서": 9001,
      "비율": 9002,
      "수정": 9003,
      "독립": 9004,
      "##ST": 9005,
      "일으": 9006,
      "##마사지": 9007,
      "65": 9008,
      "##수료": 9009,
      "un": 9010,
      "연속": 9011,
      "##한다는": 9012,
      "##식품": 9013,
      "##ob": 9014,
      "##란다": 9015,
      "배달": 9016,
      "Re": 9017,
      "##AN": 9018,
      "##사랑": 9019,
      "실행": 9020,
      "##너무": 9021,
      "버리": 9022,
      "##ish": 9023,
      "구독": 9024,
      "야채": 9025,
      "##웨어": 9026,
      "##시대": 9027,
      "##래스": 9028,
      "돌아가": 9029,
      "##물질": 9030,
      "주목": 9031,
      "떠나": 9032,
      "시키": 9033,
      "시술": 9034,
      "소유": 9035,
      "##AT": 9036,
      "##ord": 9037,
      "##────": 9038,
      "비판": 9039,
      "www": 9040,
      "식품": 9041,
      "합의": 9042,
      "so": 9043,
      "콘텐츠": 9044,
      "##에는": 9045,
      "##교통": 9046,
      "##기사": 9047,
      "거실": 9048,
      "보상": 9049,
      "미치": 9050,
      "맞추": 9051,
      "자녀": 9052,
      "##구역": 9053,
      "오리": 9054,
      "수능": 9055,
      "받아": 9056,
      "##au": 9057,
      "##자면": 9058,
      "이건": 9059,
      "반찬": 9060,
      "최저": 9061,
      "2008": 9062,
      "##ire": 9063,
      "어울리": 9064,
      "##ove": 9065,
      "가볍": 9066,
      "자세히": 9067,
      "습관": 9068,
      "##건강": 9069,
      "##산물": 9070,
      "신체": 9071,
      "##께요": 9072,
      "과일": 9073,
      "이내": 9074,
      "초등": 9075,
      "지키": 9076,
      "재밌": 9077,
      "뿌리": 9078,
      "신선": 9079,
      "드디어": 9080,
      "완전히": 9081,
      "러시아": 9082,
      "연출": 9083,
      "측면": 9084,
      "기계": 9085,
      "##서관": 9086,
      "심리": 9087,
      "와인": 9088,
      "부부": 9089,
      "민주당": 9090,
      "배터리": 9091,
      "작용": 9092,
      "통하": 9093,
      "대기": 9094,
      "##후기": 9095,
      "소중": 9096,
      "언어": 9097,
      "현지": 9098,
      "맞춤": 9099,
      "드라이": 9100,
      "그만큼": 9101,
      "줄어": 9102,
      "아이폰": 9103,
      "검토": 9104,
      "##화점": 9105,
      "결제": 9106,
      "##지도": 9107,
      "It": 9108,
      "##바로": 9109,
      "동작": 9110,
      "연장": 9111,
      "차단": 9112,
      "사용자": 9113,
      "고양이": 9114,
      "49": 9115,
      "##린다": 9116,
      "논의": 9117,
      "출장": 9118,
      "유기": 9119,
      "54": 9120,
      "##전거": 9121,
      "성인": 9122,
      "치킨": 9123,
      "통과": 9124,
      "스토리": 9125,
      "##볶이": 9126,
      "##장고": 9127,
      "##도우": 9128,
      "##수리": 9129,
      "인근": 9130,
      "##80": 9131,
      "##AR": 9132,
      "배출": 9133,
      "고용": 9134,
      "##ru": 9135,
      "64": 9136,
      "어려움": 9137,
      "##었다": 9138,
      "위기": 9139,
      "##ond": 9140,
      "조명": 9141,
      "체결": 9142,
      "법률": 9143,
      "절차": 9144,
      "##능력": 9145,
      "방안": 9146,
      "접수": 9147,
      "어깨": 9148,
      "공장": 9149,
      "##드려": 9150,
      "##ual": 9151,
      "##ick": 9152,
      "##사무": 9153,
      "##적으로": 9154,
      "예산": 9155,
      "프리미엄": 9156,
      "which": 9157,
      "##하면": 9158,
      "소금": 9159,
      "##구조": 9160,
      "서울시": 9161,
      "설립": 9162,
      "##라우": 9163,
      "확산": 9164,
      "메모": 9165,
      "##안전": 9166,
      "논란": 9167,
      "회의": 9168,
      "유통": 9169,
      "추억": 9170,
      "##소스": 9171,
      "피자": 9172,
      "줄이": 9173,
      "한정": 9174,
      "촉촉": 9175,
      "산책": 9176,
      "감자": 9177,
      "wid": 9178,
      "간편": 9179,
      "거주": 9180,
      "가스": 9181,
      "가방": 9182,
      "##아가": 9183,
      "워낙": 9184,
      "##시피": 9185,
      "달러": 9186,
      "##ther": 9187,
      "장면": 9188,
      "##리오": 9189,
      "게시": 9190,
      "지켜": 9191,
      "##파이": 9192,
      "확장": 9193,
      "##커피": 9194,
      "##제도": 9195,
      "600": 9196,
      "##이란": 9197,
      "면역": 9198,
      "##대회": 9199,
      "##테크": 9200,
      "교환": 9201,
      "##ents": 9202,
      "백신": 9203,
      "##방향": 9204,
      "##결과": 9205,
      "##지수": 9206,
      "언제나": 9207,
      "Sh": 9208,
      "최선": 9209,
      "46": 9210,
      "청구": 9211,
      "제기": 9212,
      "##포인트": 9213,
      "프로젝트": 9214,
      "##레이드": 9215,
      "비해": 9216,
      "##더라구": 9217,
      "110": 9218,
      "가진": 9219,
      "상상": 9220,
      "유치": 9221,
      "##ON": 9222,
      "##렇게": 9223,
      "실적": 9224,
      "안심": 9225,
      "샐러드": 9226,
      "##so": 9227,
      "시점": 9228,
      "동네": 9229,
      "##ㅡㅡ": 9230,
      "##적인": 9231,
      "노출": 9232,
      "바라보": 9233,
      "one": 9234,
      "get": 9235,
      "특수": 9236,
      "유일": 9237,
      "소화": 9238,
      "##ike": 9239,
      "바람직": 9240,
      "197": 9241,
      "물질": 9242,
      "이뤄": 9243,
      "뭔가": 9244,
      "훈련": 9245,
      "누르": 9246,
      "##시스": 9247,
      "sp": 9248,
      "##도체": 9249,
      "그동안": 9250,
      "달성": 9251,
      "토지": 9252,
      "재산": 9253,
      "게다가": 9254,
      "##럭시": 9255,
      "고통": 9256,
      "성과": 9257,
      "59": 9258,
      "심각": 9259,
      "##역시": 9260,
      "풍경": 9261,
      "sc": 9262,
      "주차장": 9263,
      "##키지": 9264,
      "대중": 9265,
      "##데이트": 9266,
      "의지": 9267,
      "플랫": 9268,
      "##사이트": 9269,
      "태양": 9270,
      "공감": 9271,
      "패턴": 9272,
      "비행": 9273,
      "##uc": 9274,
      "놀이": 9275,
      "못했": 9276,
      "간식": 9277,
      "##ress": 9278,
      "##장애": 9279,
      "무기": 9280,
      "페이스": 9281,
      "새우": 9282,
      "시청": 9283,
      "신발": 9284,
      "##are": 9285,
      "##야지": 9286,
      "손상": 9287,
      "충격": 9288,
      "SNS": 9289,
      "시각": 9290,
      "##운드": 9291,
      "##자동차": 9292,
      "per": 9293,
      "사무실": 9294,
      "##공항": 9295,
      "규제": 9296,
      "이게": 9297,
      "##냐고": 9298,
      "멀리": 9299,
      "47": 9300,
      "were": 9301,
      "엔진": 9302,
      "##그램": 9303,
      "확정": 9304,
      "어쩌": 9305,
      "##구이": 9306,
      "주가": 9307,
      "예쁜": 9308,
      "##ark": 9309,
      "##카이": 9310,
      "##웨이": 9311,
      "세탁": 9312,
      "##피부": 9313,
      "td": 9314,
      "동의": 9315,
      "##te": 9316,
      "조용": 9317,
      "##전화": 9318,
      "##로운": 9319,
      "움직이": 9320,
      "##와대": 9321,
      "##질환": 9322,
      "##금액": 9323,
      "불법": 9324,
      "선호": 9325,
      "소설": 9326,
      "골프": 9327,
      "전투": 9328,
      "width": 9329,
      "케이스": 9330,
      "##선물": 9331,
      "##타임": 9332,
      "흔들": 9333,
      "##학과": 9334,
      "##아리": 9335,
      "변호사": 9336,
      "의심": 9337,
      "버튼": 9338,
      "테스트": 9339,
      "세대": 9340,
      "##으신": 9341,
      "아내": 9342,
      "##프라": 9343,
      "품질": 9344,
      "상처": 9345,
      "치아": 9346,
      "##체험": 9347,
      "US": 9348,
      "##CT": 9349,
      "금방": 9350,
      "##회장": 9351,
      "애니": 9352,
      "점검": 9353,
      "##니터": 9354,
      "고르": 9355,
      "눈물": 9356,
      "53": 9357,
      "금리": 9358,
      "유튜브": 9359,
      "##oth": 9360,
      "긍정": 9361,
      "##중앙": 9362,
      "##물관": 9363,
      "혁신": 9364,
      "##사용": 9365,
      "패션": 9366,
      "스피": 9367,
      "삼성전자": 9368,
      "스포츠": 9369,
      "##건설": 9370,
      "##백질": 9371,
      "##자금": 9372,
      "##재인": 9373,
      "일찍": 9374,
      "공무원": 9375,
      "네트워크": 9376,
      "슈퍼": 9377,
      "예수": 9378,
      "##국민": 9379,
      "##모델": 9380,
      "##셔도": 9381,
      "##느라": 9382,
      "구하": 9383,
      "##베이": 9384,
      "##려서": 9385,
      "##영어": 9386,
      "##ree": 9387,
      "##먼지": 9388,
      "##urn": 9389,
      "우유": 9390,
      "##OR": 9391,
      "임신": 9392,
      "##vel": 9393,
      "미술": 9394,
      "길이": 9395,
      "표면": 9396,
      "##분석": 9397,
      "Un": 9398,
      "향후": 9399,
      "##나마": 9400,
      "점수": 9401,
      "이어지": 9402,
      "번호": 9403,
      "인수": 9404,
      "##ink": 9405,
      "아쉽": 9406,
      "의하": 9407,
      "아시아": 9408,
      "##준비": 9409,
      "물리": 9410,
      "##ext": 9411,
      "56": 9412,
      "종이": 9413,
      "둘째": 9414,
      "##와서": 9415,
      "지난달": 9416,
      "ml": 9417,
      "가까이": 9418,
      "##ix": 9419,
      "보증": 9420,
      "##자격": 9421,
      "의무": 9422,
      "##니깐": 9423,
      "no": 9424,
      "재판": 9425,
      "##부산": 9426,
      "체계": 9427,
      "출력": 9428,
      "##own": 9429,
      "보조": 9430,
      "세금": 9431,
      "2007": 9432,
      "##호텔": 9433,
      "수영": 9434,
      "양파": 9435,
      "상가": 9436,
      "##걸이": 9437,
      "이용자": 9438,
      "##ount": 9439,
      "전반": 9440,
      "마케팅": 9441,
      "his": 9442,
      "##끼리": 9443,
      "보인다": 9444,
      "man": 9445,
      "어른": 9446,
      "85": 9447,
      "질병": 9448,
      "##세기": 9449,
      "##김치": 9450,
      "추출": 9451,
      "무선": 9452,
      "결론": 9453,
      "박스": 9454,
      "새롭": 9455,
      "민간": 9456,
      "they": 9457,
      "##자고": 9458,
      "##ock": 9459,
      "##중고차": 9460,
      "##연합": 9461,
      "##영화": 9462,
      "똑같": 9463,
      "##로우": 9464,
      "##줍니다": 9465,
      "##관련": 9466,
      "time": 9467,
      "##드름": 9468,
      "그린": 9469,
      "달려": 9470,
      "축구": 9471,
      "##erv": 9472,
      "타입": 9473,
      "보수": 9474,
      "We": 9475,
      "경남": 9476,
      "##패드": 9477,
      "중단": 9478,
      "고추": 9479,
      "내지": 9480,
      "흐름": 9481,
      "파트": 9482,
      "##요리": 9483,
      "화장품": 9484,
      "##고리": 9485,
      "##ations": 9486,
      "핑크": 9487,
      "수용": 9488,
      "취향": 9489,
      "스티": 9490,
      "어려운": 9491,
      "진출": 9492,
      "다소": 9493,
      "추정": 9494,
      "서류": 9495,
      "##오르": 9496,
      "그만": 9497,
      "적합": 9498,
      "처럼": 9499,
      "##ont": 9500,
      "이탈": 9501,
      "특허": 9502,
      "유사": 9503,
      "자금": 9504,
      "##11": 9505,
      "more": 9506,
      "84": 9507,
      "마늘": 9508,
      "##다른": 9509,
      "##내용": 9510,
      "문장": 9511,
      "##lic": 9512,
      "분류": 9513,
      "교회": 9514,
      "##의회": 9515,
      "평화": 9516,
      "청와대": 9517,
      "##대비": 9518,
      "소통": 9519,
      "유형": 9520,
      "용기": 9521,
      "##ey": 9522,
      "오빠": 9523,
      "##지어": 9524,
      "KT": 9525,
      "##ood": 9526,
      "불가": 9527,
      "95": 9528,
      "무게": 9529,
      "이끌": 9530,
      "##나오": 9531,
      "평생": 9532,
      "##bs": 9533,
      "강하": 9534,
      "##ata": 9535,
      "##로스": 9536,
      "손해": 9537,
      "열리": 9538,
      "현금": 9539,
      "##림픽": 9540,
      "인하": 9541,
      "##ft": 9542,
      "못한": 9543,
      "투명": 9544,
      "완화": 9545,
      "우주": 9546,
      "심하": 9547,
      "인구": 9548,
      "900": 9549,
      "##대구": 9550,
      "취소": 9551,
      "핸드폰": 9552,
      "am": 9553,
      "전력": 9554,
      "맞춰": 9555,
      "##수술": 9556,
      "예측": 9557,
      "고생": 9558,
      "##판매": 9559,
      "kn": 9560,
      "구비": 9561,
      "##트남": 9562,
      "58": 9563,
      "순서": 9564,
      "##기구": 9565,
      "##에선": 9566,
      "아동": 9567,
      "이루어지": 9568,
      "요금": 9569,
      "##스티": 9570,
      "##볶음": 9571,
      "800": 9572,
      "##테일": 9573,
      "##그리": 9574,
      "택배": 9575,
      "##성분": 9576,
      "##ely": 9577,
      "sa": 9578,
      "##천만": 9579,
      "요인": 9580,
      "권리": 9581,
      "갖추": 9582,
      "You": 9583,
      "##겹살": 9584,
      "##찌개": 9585,
      "가벼": 9586,
      "늘어나": 9587,
      "승리": 9588,
      "삭제": 9589,
      "만화": 9590,
      "복잡": 9591,
      "##특별": 9592,
      "작동": 9593,
      "단점": 9594,
      "비중": 9595,
      "2022": 9596,
      "화학": 9597,
      "##사자": 9598,
      "거부": 9599,
      "##다음": 9600,
      "ad": 9601,
      "의한": 9602,
      "##들어": 9603,
      "##던지": 9604,
      "##ound": 9605,
      "중고차": 9606,
      "##법원": 9607,
      "가로": 9608,
      "##레기": 9609,
      "##시티": 9610,
      "##경찰": 9611,
      "모자": 9612,
      "조리": 9613,
      "##form": 9614,
      "범죄": 9615,
      "이외": 9616,
      "##ank": 9617,
      "신랑": 9618,
      "대선": 9619,
      "ev": 9620,
      "##금리": 9621,
      "고등학교": 9622,
      "바이러스": 9623,
      "72": 9624,
      "수치": 9625,
      "피해자": 9626,
      "지인": 9627,
      "침대": 9628,
      "부여": 9629,
      "수수료": 9630,
      "등급": 9631,
      "자전거": 9632,
      "bl": 9633,
      "뜨거": 9634,
      "##코드": 9635,
      "상호": 9636,
      "비트": 9637,
      "px": 9638,
      "보안": 9639,
      "보고": 9640,
      "파워": 9641,
      "잠깐": 9642,
      "의혹": 9643,
      "##바닥": 9644,
      "채용": 9645,
      "##구마": 9646,
      "##ㅠㅠㅠㅠ": 9647,
      "##마토": 9648,
      "##플러스": 9649,
      "import": 9650,
      "라면": 9651,
      "원장": 9652,
      "##행사": 9653,
      "##음식": 9654,
      "##차량": 9655,
      "##이용": 9656,
      "있습니다": 9657,
      "전공": 9658,
      "part": 9659,
      "##저트": 9660,
      "경북": 9661,
      "인터뷰": 9662,
      "발급": 9663,
      "##ype": 9664,
      "##시오": 9665,
      "노트북": 9666,
      "대회": 9667,
      "수많": 9668,
      "##습니까": 9669,
      "아예": 9670,
      "다수": 9671,
      "##그러": 9672,
      "##이즈": 9673,
      "숫자": 9674,
      "포토": 9675,
      "생일": 9676,
      "감성": 9677,
      "##이크업": 9678,
      "##라이트": 9679,
      "##항공": 9680,
      "위반": 9681,
      "사상": 9682,
      "##생각": 9683,
      "##ions": 9684,
      "62": 9685,
      "갤럭시": 9686,
      "접속": 9687,
      "##쇼핑": 9688,
      "주위": 9689,
      "디스": 9690,
      "부품": 9691,
      "##하우": 9692,
      "##oll": 9693,
      "지하철": 9694,
      "##방식": 9695,
      "종목": 9696,
      "개별": 9697,
      "감동": 9698,
      "진료": 9699,
      "대단": 9700,
      "복수": 9701,
      "공항": 9702,
      "63": 9703,
      "단백질": 9704,
      "경력": 9705,
      "##발전": 9706,
      "철저": 9707,
      "5000": 9708,
      "ag": 9709,
      "##erm": 9710,
      "##준다": 9711,
      "##식당": 9712,
      "##너스": 9713,
      "안쪽": 9714,
      "##매매": 9715,
      "보였": 9716,
      "##디자인": 9717,
      "##용품": 9718,
      "##ng": 9719,
      "정기": 9720,
      "##집니다": 9721,
      "인공": 9722,
      "pre": 9723,
      "##러리": 9724,
      "혈액": 9725,
      "대책": 9726,
      "57": 9727,
      "자라": 9728,
      "##디션": 9729,
      "표준": 9730,
      "##타이": 9731,
      "넉넉": 9732,
      "자산": 9733,
      "##재료": 9734,
      "블록": 9735,
      "##동물": 9736,
      "냉장고": 9737,
      "##ov": 9738,
      "유아": 9739,
      "##선거": 9740,
      "마이": 9741,
      "모니터": 9742,
      "비싸": 9743,
      "모드": 9744,
      "법원": 9745,
      "이익": 9746,
      "그런지": 9747,
      "입학": 9748,
      "면접": 9749,
      "과제": 9750,
      "세포": 9751,
      "화려": 9752,
      "즐겁": 9753,
      "최적": 9754,
      "간장": 9755,
      "그저": 9756,
      "집안": 9757,
      "마사지": 9758,
      "##yst": 9759,
      "집단": 9760,
      "대리": 9761,
      "실천": 9762,
      "숙소": 9763,
      "증거": 9764,
      "국립": 9765,
      "##일러": 9766,
      "##조차": 9767,
      "당장": 9768,
      "노인": 9769,
      "66": 9770,
      "LED": 9771,
      "ph": 9772,
      "예비": 9773,
      "센터": 9774,
      "##ring": 9775,
      "##자체": 9776,
      "사태": 9777,
      "가리": 9778,
      "당일": 9779,
      "나타났": 9780,
      "불과": 9781,
      "##ㅎㅎ": 9782,
      "their": 9783,
      "##관광": 9784,
      "지만": 9785,
      "바디": 9786,
      "##시다": 9787,
      "접촉": 9788,
      "오일": 9789,
      "한다는": 9790,
      "##스타일": 9791,
      "레벨": 9792,
      "매년": 9793,
      "##인터": 9794,
      "메시지": 9795,
      "알리": 9796,
      "like": 9797,
      "##럼프": 9798,
      "##위원장": 9799,
      "AI": 9800,
      "qu": 9801,
      "에어컨": 9802,
      "크리스마스": 9803,
      "실수": 9804,
      "확률": 9805,
      "차례": 9806,
      "there": 9807,
      "##ian": 9808,
      "전날": 9809,
      "문재인": 9810,
      "##종합": 9811,
      "##ater": 9812,
      "##운전": 9813,
      "통화": 9814,
      "연계": 9815,
      "대사": 9816,
      "남기": 9817,
      "전면": 9818,
      "과연": 9819,
      "그리스": 9820,
      "무릎": 9821,
      "##그래": 9822,
      "한글": 9823,
      "근거": 9824,
      "##해진": 9825,
      "차원": 9826,
      "기기": 9827,
      "덧붙": 9828,
      "입맛": 9829,
      "무대": 9830,
      "##ode": 9831,
      "##에도": 9832,
      "##부모": 9833,
      "솔직히": 9834,
      "커버": 9835,
      "##성장": 9836,
      "중소기업": 9837,
      "심지어": 9838,
      "필름": 9839,
      "모임": 9840,
      "죽음": 9841,
      "복합": 9842,
      "##는다고": 9843,
      "용량": 9844,
      "유산": 9845,
      "우울": 9846,
      "##속도": 9847,
      "##오늘": 9848,
      "관람": 9849,
      "빠져": 9850,
      "원칙": 9851,
      "74": 9852,
      "inter": 9853,
      "##베리": 9854,
      "He": 9855,
      "연합": 9856,
      "보건": 9857,
      "##워드": 9858,
      "일자리": 9859,
      "실시간": 9860,
      "독서": 9861,
      "지내": 9862,
      "프레임": 9863,
      "챙겨": 9864,
      "합리": 9865,
      "2006": 9866,
      "유의": 9867,
      "196": 9868,
      "전주": 9869,
      "전년": 9870,
      "무시": 9871,
      "조립": 9872,
      "저자": 9873,
      "단독": 9874,
      "정식": 9875,
      "레드": 9876,
      "뉴욕": 9877,
      "무한": 9878,
      "who": 9879,
      "##치즈": 9880,
      "한계": 9881,
      "심장": 9882,
      "수강": 9883,
      "차별": 9884,
      "페이지": 9885,
      "##니티": 9886,
      "##법인": 9887,
      "카톡": 9888,
      "Pro": 9889,
      "##ors": 9890,
      "##공부": 9891,
      "태어": 9892,
      "인한": 9893,
      "통해서": 9894,
      "빠른": 9895,
      "업계": 9896,
      "출근": 9897,
      "전송": 9898,
      "##건축": 9899,
      "표정": 9900,
      "오염": 9901,
      "응원": 9902,
      "캠핑": 9903,
      "##인치": 9904,
      "서버": 9905,
      "안경": 9906,
      "##EN": 9907,
      "한다고": 9908,
      "##하이": 9909,
      "##lect": 9910,
      "후회": 9911,
      "거짓": 9912,
      "폴리": 9913,
      "소프트": 9914,
      "교정": 9915,
      "##나물": 9916,
      "##ert": 9917,
      "계절": 9918,
      "전남": 9919,
      "계기": 9920,
      "오랫": 9921,
      "휴대폰": 9922,
      "##행위": 9923,
      "두려": 9924,
      "투입": 9925,
      "자원": 9926,
      "세월": 9927,
      "##ews": 9928,
      "##예술": 9929,
      "단위": 9930,
      "##세포": 9931,
      "구현": 9932,
      "기아": 9933,
      "베트남": 9934,
      "달달": 9935,
      "##enc": 9936,
      "반도체": 9937,
      "77": 9938,
      "지나가": 9939,
      "##임대": 9940,
      "##아트": 9941,
      "선발": 9942,
      "기재": 9943,
      "##ild": 9944,
      "중고": 9945,
      "옛날": 9946,
      "##oy": 9947,
      "정확히": 9948,
      "세종": 9949,
      "##국가": 9950,
      "정성": 9951,
      "##성비": 9952,
      "딸기": 9953,
      "매입": 9954,
      "적어도": 9955,
      "흐르": 9956,
      "when": 9957,
      "무서": 9958,
      "##프리": 9959,
      "##분야": 9960,
      "##ays": 9961,
      "##어용": 9962,
      "##부동산": 9963,
      "##페이스": 9964,
      "##대전": 9965,
      "미용": 9966,
      "긴장": 9967,
      "미만": 9968,
      "about": 9969,
      "대로": 9970,
      "##가치": 9971,
      "##이팅": 9972,
      "할머니": 9973,
      "##산동": 9974,
      "기도": 9975,
      "fe": 9976,
      "스크랩": 9977,
      "축제": 9978,
      "##자는": 9979,
      "해소": 9980,
      "과목": 9981,
      "##로리": 9982,
      "소요": 9983,
      "ㅋㅋㅋㅋㅋㅋㅋ": 9984,
      "그러면": 9985,
      "리더": 9986,
      "매물": 9987,
      "##시공": 9988,
      "수집": 9989,
      "패키지": 9990,
      "감기": 9991,
      "심사": 9992,
      "마법": 9993,
      "##정리": 9994,
      "동기": 9995,
      "우리나라": 9996,
      "아닐": 9997,
      "##ject": 9998,
      "스킬": 9999,
      "##OS": 10000,
      "불러": 10001,
      "##브리": 10002,
      "지식인": 10003,
      "지점": 10004,
      "##io": 10005,
      "스프": 10006,
      "min": 10007,
      "##조합": 10008,
      "##확인": 10009,
      "인지": 10010,
      "재생": 10011,
      "fl": 10012,
      "##이하": 10013,
      "주거": 10014,
      "##ES": 10015,
      "파티": 10016,
      "초반": 10017,
      "페이스북": 10018,
      "매수": 10019,
      "메이": 10020,
      "##누리": 10021,
      "130": 10022,
      "##돼지": 10023,
      "무단": 10024,
      "##분양": 10025,
      "##IC": 10026,
      "경향": 10027,
      "2005": 10028,
      "교과": 10029,
      "위주": 10030,
      "청약": 10031,
      "진심": 10032,
      "굳이": 10033,
      "##렌지": 10034,
      "구간": 10035,
      "##mer": 10036,
      "생리": 10037,
      "외교": 10038,
      "방어": 10039,
      "천안": 10040,
      "형식": 10041,
      "마이크": 10042,
      "Se": 10043,
      "##면적": 10044,
      "문서": 10045,
      "수면": 10046,
      "오피스": 10047,
      "ind": 10048,
      "유발": 10049,
      "기울": 10050,
      "##만들": 10051,
      "볶음": 10052,
      "여드름": 10053,
      "##iss": 10054,
      "##티브": 10055,
      "##들은": 10056,
      "공원": 10057,
      "##주얼": 10058,
      "No": 10059,
      "운행": 10060,
      "채권": 10061,
      "먼지": 10062,
      "##경영": 10063,
      "한참": 10064,
      "호흡": 10065,
      "일요일": 10066,
      "##짜리": 10067,
      "의자": 10068,
      "had": 10069,
      "##다보": 10070,
      "공모": 10071,
      "하는": 10072,
      "유도": 10073,
      "소고기": 10074,
      "##코인": 10075,
      "그릇": 10076,
      "##ese": 10077,
      "##튜디오": 10078,
      "힐링": 10079,
      "수납": 10080,
      "61": 10081,
      "증권": 10082,
      "KBS": 10083,
      "총리": 10084,
      "통계": 10085,
      "종료": 10086,
      "##아노": 10087,
      "항목": 10088,
      "멤버": 10089,
      "##은지": 10090,
      "교사": 10091,
      "고등": 10092,
      "val": 10093,
      "멀티": 10094,
      "익숙": 10095,
      "정하": 10096,
      "##올리": 10097,
      "접종": 10098,
      "been": 10099,
      "획득": 10100,
      "선보": 10101,
      "##ss": 10102,
      "##개인": 10103,
      "어요": 10104,
      "##는다는": 10105,
      "가수": 10106,
      "가이드": 10107,
      "##순위": 10108,
      "##IT": 10109,
      "곳곳": 10110,
      "방역": 10111,
      "상대방": 10112,
      "her": 10113,
      "##유리": 10114,
      "귀엽": 10115,
      "##오일": 10116,
      "ret": 10117,
      "평일": 10118,
      "##old": 10119,
      "최신": 10120,
      "유용": 10121,
      "work": 10122,
      "##구매": 10123,
      "렌즈": 10124,
      "소송": 10125,
      "##러지": 10126,
      "##포트": 10127,
      "하드": 10128,
      "##제주": 10129,
      "정권": 10130,
      "##레이트": 10131,
      "##코로나": 10132,
      "des": 10133,
      "토요일": 10134,
      "커플": 10135,
      "체력": 10136,
      "##드려요": 10137,
      "아르": 10138,
      "혼합": 10139,
      "기부": 10140,
      "종교": 10141,
      "피하": 10142,
      "야외": 10143,
      "##장관": 10144,
      "정당": 10145,
      "주도": 10146,
      "발달": 10147,
      "개봉": 10148,
      "남겨": 10149,
      "##fter": 10150,
      "##IP": 10151,
      "유니": 10152,
      "디저트": 10153,
      "강제": 10154,
      "움직임": 10155,
      "##국제": 10156,
      "##천히": 10157,
      "놀라": 10158,
      "3000": 10159,
      "##근혜": 10160,
      "##엄마": 10161,
      "##ict": 10162,
      "##센트": 10163,
      "##ax": 10164,
      "마리": 10165,
      "This": 10166,
      "수신": 10167,
      "종종": 10168,
      "##AM": 10169,
      "##봐야": 10170,
      "사기": 10171,
      "##ade": 10172,
      "버전": 10173,
      "연말": 10174,
      "투표": 10175,
      "펼쳐": 10176,
      "설탕": 10177,
      "수시": 10178,
      "##고사": 10179,
      "메모리": 10180,
      "학점": 10181,
      "spe": 10182,
      "샤워": 10183,
      "옵션": 10184,
      "에게": 10185,
      "열린": 10186,
      "발언": 10187,
      "욕실": 10188,
      "any": 10189,
      "금속": 10190,
      "통한": 10191,
      "부문": 10192,
      "달콤": 10193,
      "##ple": 10194,
      "##미지": 10195,
      "##ystem": 10196,
      "채무": 10197,
      "##르트": 10198,
      "식감": 10199,
      "##화물": 10200,
      "구속": 10201,
      "오프": 10202,
      "사업자": 10203,
      "단말": 10204,
      "신축": 10205,
      "며칠": 10206,
      "##레인": 10207,
      "##한다면": 10208,
      "rec": 10209,
      "88": 10210,
      "답답": 10211,
      "##직원": 10212,
      "수단": 10213,
      "파스타": 10214,
      "다고": 10215,
      "발행": 10216,
      "##코리아": 10217,
      "가상": 10218,
      "매트": 10219,
      "업데이트": 10220,
      "##루션": 10221,
      "이론": 10222,
      "pe": 10223,
      "##가입": 10224,
      "두피": 10225,
      "살아가": 10226,
      "##한데": 10227,
      "대답": 10228,
      "계단": 10229,
      "콜라": 10230,
      "250": 10231,
      "국토": 10232,
      "##나다": 10233,
      "##까스": 10234,
      "천천히": 10235,
      "조화": 10236,
      "##전기": 10237,
      "##미터": 10238,
      "의식": 10239,
      "각자": 10240,
      "##미널": 10241,
      "##reat": 10242,
      "방침": 10243,
      "겁니다": 10244,
      "##빌라": 10245,
      "출산": 10246,
      "피로": 10247,
      "안타": 10248,
      "통일": 10249,
      "##으실": 10250,
      "##버거": 10251,
      "##리스트": 10252,
      "내놓": 10253,
      "필터": 10254,
      "구글": 10255,
      "대충": 10256,
      "수제": 10257,
      "700": 10258,
      "신속": 10259,
      "극복": 10260,
      "##케이션": 10261,
      "##40": 10262,
      "year": 10263,
      "것이": 10264,
      "셀프": 10265,
      "가시": 10266,
      "국정": 10267,
      "##하루": 10268,
      "코드": 10269,
      "##징어": 10270,
      "판결": 10271,
      "##공장": 10272,
      "찾아보": 10273,
      "검증": 10274,
      "##화장": 10275,
      "허용": 10276,
      "##ally": 10277,
      "Ar": 10278,
      "##ery": 10279,
      "##신고": 10280,
      "82": 10281,
      "위원장": 10282,
      "사정": 10283,
      "##비아": 10284,
      "##대문": 10285,
      "##제작": 10286,
      "매콤": 10287,
      "개요": 10288,
      "복지": 10289,
      "##방지": 10290,
      "부착": 10291,
      "두께": 10292,
      "앞두": 10293,
      "##수구": 10294,
      "흥미": 10295,
      "실리": 10296,
      "투자자": 10297,
      "아름다운": 10298,
      "##로써": 10299,
      "set": 10300,
      "##타운": 10301,
      "나서": 10302,
      "특이": 10303,
      "가까운": 10304,
      "##월드": 10305,
      "시선": 10306,
      "##조정": 10307,
      "관찰": 10308,
      "##공단": 10309,
      "협의": 10310,
      "##니어": 10311,
      "첫째": 10312,
      "over": 10313,
      "창원": 10314,
      "##irst": 10315,
      "te": 10316,
      "경매": 10317,
      "##메리카": 10318,
      "##레이크": 10319,
      "##아라": 10320,
      "##인테리어": 10321,
      "염증": 10322,
      "##ps": 10323,
      "Cl": 10324,
      "김정": 10325,
      "##설치": 10326,
      "##닙니다": 10327,
      "##문학": 10328,
      "진실": 10329,
      "##광역시": 10330,
      "녀석": 10331,
      "아가": 10332,
      "##으려고": 10333,
      "강원도": 10334,
      "##민주당": 10335,
      "##AL": 10336,
      "76": 10337,
      "푸짐": 10338,
      "##수업": 10339,
      "would": 10340,
      "트럼프": 10341,
      "맛나": 10342,
      "와서": 10343,
      "CO": 10344,
      "et": 10345,
      "##기름": 10346,
      "맞이": 10347,
      "67": 10348,
      "##자원": 10349,
      "갈등": 10350,
      "##학기": 10351,
      "68": 10352,
      "id": 10353,
      "처벌": 10354,
      "##지사": 10355,
      "조기": 10356,
      "##ram": 10357,
      "돌아오": 10358,
      "용도": 10359,
      "전해": 10360,
      "##마켓": 10361,
      "73": 10362,
      "태도": 10363,
      "##인증": 10364,
      "##we": 10365,
      "엘리": 10366,
      "Com": 10367,
      "##리그": 10368,
      "기여": 10369,
      "진입": 10370,
      "##연히": 10371,
      "아까": 10372,
      "##보증": 10373,
      "관절": 10374,
      "##시기": 10375,
      "편집": 10376,
      "##봅니다": 10377,
      "off": 10378,
      "##라니": 10379,
      "스케": 10380,
      "손가락": 10381,
      "정원": 10382,
      "퇴근": 10383,
      "힘든": 10384,
      "##배송": 10385,
      "##선생": 10386,
      "법인": 10387,
      "##스크림": 10388,
      "##케이크": 10389,
      "청주": 10390,
      "아울": 10391,
      "On": 10392,
      "계열": 10393,
      "저작": 10394,
      "##row": 10395,
      "##AS": 10396,
      "끝내": 10397,
      "동반": 10398,
      "also": 10399,
      "홍콩": 10400,
      "##ings": 10401,
      "what": 10402,
      "센서": 10403,
      "호주": 10404,
      "아우": 10405,
      "상위": 10406,
      "민감": 10407,
      "적응": 10408,
      "##이벤트": 10409,
      "케어": 10410,
      "##외선": 10411,
      "시트": 10412,
      "##여자": 10413,
      "떡볶이": 10414,
      "##바람": 10415,
      "생긴": 10416,
      "월요일": 10417,
      "커뮤": 10418,
      "##ash": 10419,
      "명령": 10420,
      "##에너지": 10421,
      "사라지": 10422,
      "주행": 10423,
      "부인": 10424,
      "##상황": 10425,
      "무려": 10426,
      "##제거": 10427,
      "하고": 10428,
      "##주년": 10429,
      "##ET": 10430,
      "의뢰": 10431,
      "69": 10432,
      "상장": 10433,
      "some": 10434,
      "연예": 10435,
      "한국인": 10436,
      "휴식": 10437,
      "other": 10438,
      "깊이": 10439,
      "##자산": 10440,
      "균형": 10441,
      "71": 10442,
      "und": 10443,
      "##센스": 10444,
      "아이스크림": 10445,
      "흘러": 10446,
      "##재단": 10447,
      "##먼트": 10448,
      "월드": 10449,
      "단순히": 10450,
      "귀찮": 10451,
      "##조선": 10452,
      "##반찬": 10453,
      "경주": 10454,
      "##영업": 10455,
      "##연구소": 10456,
      "냉동": 10457,
      "##AC": 10458,
      "그나마": 10459,
      "##으세요": 10460,
      "견적": 10461,
      "경계": 10462,
      "이재": 10463,
      "##사리": 10464,
      "좋은": 10465,
      "훌륭": 10466,
      "##iver": 10467,
      "##조트": 10468,
      "ST": 10469,
      "##ys": 10470,
      "##아웃": 10471,
      "##문의": 10472,
      "##할인": 10473,
      "부천": 10474,
      "자본": 10475,
      "음성": 10476,
      "터치": 10477,
      "윈도우": 10478,
      "fun": 10479,
      "조작": 10480,
      "추석": 10481,
      "수록": 10482,
      "##대책": 10483,
      "##의료": 10484,
      "돌려": 10485,
      "79": 10486,
      "##ough": 10487,
      "복용": 10488,
      "헤드": 10489,
      "##ates": 10490,
      "내내": 10491,
      "add": 10492,
      "def": 10493,
      "##이라": 10494,
      "##마디": 10495,
      "데이트": 10496,
      "유행": 10497,
      "토론": 10498,
      "샴푸": 10499,
      "##드로": 10500,
      "##덩이": 10501,
      "##축제": 10502,
      "스킨": 10503,
      "##시트": 10504,
      "부대": 10505,
      "##의자": 10506,
      "##중국": 10507,
      "탄생": 10508,
      "##저기": 10509,
      "문제점": 10510,
      "tw": 10511,
      "파괴": 10512,
      "압력": 10513,
      "##이번": 10514,
      "##ific": 10515,
      "HD": 10516,
      "##나이": 10517,
      "##하지": 10518,
      "소녀": 10519,
      "인력": 10520,
      "##메이션": 10521,
      "부자": 10522,
      "##사장": 10523,
      "그래픽": 10524,
      "##이야기": 10525,
      "col": 10526,
      "98": 10527,
      "브라": 10528,
      "응답": 10529,
      "그거": 10530,
      "미안": 10531,
      "##itt": 10532,
      "IP": 10533,
      "메뉴판": 10534,
      "##세스": 10535,
      "고속": 10536,
      "부작용": 10537,
      "important": 10538,
      "독특": 10539,
      "Le": 10540,
      "의도": 10541,
      "##↓↓": 10542,
      "##문자": 10543,
      "##잡이": 10544,
      "인원": 10545,
      "##니까요": 10546,
      "2004": 10547,
      "나쁘": 10548,
      "bet": 10549,
      "##행정": 10550,
      "지상": 10551,
      "느낄": 10552,
      "효능": 10553,
      "Ex": 10554,
      "색깔": 10555,
      "And": 10556,
      "180": 10557,
      "##아버지": 10558,
      "아무것": 10559,
      "즉시": 10560,
      "##치킨": 10561,
      "##메일": 10562,
      "##순환": 10563,
      "먹이": 10564,
      "출판": 10565,
      "왠지": 10566,
      "상징": 10567,
      "하나하나": 10568,
      "##의도": 10569,
      "##사이즈": 10570,
      "마주": 10571,
      "##바지": 10572,
      "##시민": 10573,
      "조각": 10574,
      "97": 10575,
      "##이도": 10576,
      "##투스": 10577,
      "노하우": 10578,
      "##학습": 10579,
      "##되는": 10580,
      "##리라": 10581,
      "케이크": 10582,
      "편입": 10583,
      "당선": 10584,
      "##공개": 10585,
      "GB": 10586,
      "체중": 10587,
      "전북": 10588,
      "##의사": 10589,
      "##렌즈": 10590,
      "경쟁력": 10591,
      "고장": 10592,
      "##회원": 10593,
      "쓰레기": 10594,
      "##란드": 10595,
      "즐길": 10596,
      "반려": 10597,
      "##iew": 10598,
      "용인": 10599,
      "삼겹살": 10600,
      "##테스": 10601,
      "##ause": 10602,
      "신문": 10603,
      "조언": 10604,
      "에스": 10605,
      "주관": 10606,
      "증명": 10607,
      "bec": 10608,
      "초과": 10609,
      "연주": 10610,
      "그게": 10611,
      "##시킨": 10612,
      "이자": 10613,
      "절반": 10614,
      "아닙니다": 10615,
      "로봇": 10616,
      "하단": 10617,
      "베스트": 10618,
      "꺼내": 10619,
      "법무": 10620,
      "##연금": 10621,
      "##과목": 10622,
      "모발": 10623,
      "마침": 10624,
      "##미술": 10625,
      "acc": 10626,
      "아이디어": 10627,
      "충남": 10628,
      "##수수": 10629,
      "시세": 10630,
      "##기기": 10631,
      "정비": 10632,
      "누가": 10633,
      "SBS": 10634,
      "##데이터": 10635,
      "첨가": 10636,
      "##ons": 10637,
      "피곤": 10638,
      "미소": 10639,
      "명확": 10640,
      "택시": 10641,
      "대박": 10642,
      "감상": 10643,
      "다는": 10644,
      "쿠키": 10645,
      "##십니다": 10646,
      "매운": 10647,
      "오토": 10648,
      "대학교": 10649,
      "악화": 10650,
      "시켜": 10651,
      "대략": 10652,
      "튼튼": 10653,
      "구멍": 10654,
      "##드렸": 10655,
      "이기": 10656,
      "우승": 10657,
      "##세서": 10658,
      "De": 10659,
      "돌리": 10660,
      "나올": 10661,
      "선고": 10662,
      "흔히": 10663,
      "미디어": 10664,
      "무척": 10665,
      "##du": 10666,
      "##교체": 10667,
      "재정": 10668,
      "취급": 10669,
      "##런스": 10670,
      "##IS": 10671,
      "##OO": 10672,
      "누리": 10673,
      "양성": 10674,
      "생겨": 10675,
      "이탈리아": 10676,
      "##clud": 10677,
      "sm": 10678,
      "트리": 10679,
      "보습": 10680,
      "골드": 10681,
      "베이스": 10682,
      "##연구원": 10683,
      "채소": 10684,
      "변하": 10685,
      "정체": 10686,
      "케이블": 10687,
      "##aw": 10688,
      "##광고": 10689,
      "부지": 10690,
      "78": 10691,
      "번역": 10692,
      "승인": 10693,
      "넘어가": 10694,
      "##자치": 10695,
      "명칭": 10696,
      "세부": 10697,
      "86": 10698,
      "된장": 10699,
      "이틀": 10700,
      "변동": 10701,
      "형사": 10702,
      "##anc": 10703,
      "다행히": 10704,
      "##노동": 10705,
      "##ork": 10706,
      "##투어": 10707,
      "감각": 10708,
      "Let": 10709,
      "##ize": 10710,
      "##걸로": 10711,
      "군사": 10712,
      "억제": 10713,
      "실무": 10714,
      "##19": 10715,
      "##매일": 10716,
      "즐거운": 10717,
      "##저씨": 10718,
      "##프로그램": 10719,
      "##닷컴": 10720,
      "일시": 10721,
      "향기": 10722,
      "##ann": 10723,
      "올라오": 10724,
      "##렉스": 10725,
      "순수": 10726,
      "순위": 10727,
      "ㅠㅠㅠ": 10728,
      "밖에": 10729,
      "##설팅": 10730,
      "비즈": 10731,
      "비상": 10732,
      "세우": 10733,
      "만남": 10734,
      "ac": 10735,
      "척추": 10736,
      "트렌": 10737,
      "실질": 10738,
      "94": 10739,
      "##rol": 10740,
      "MB": 10741,
      "도구": 10742,
      "92": 10743,
      "파리": 10744,
      "박사": 10745,
      "TO": 10746,
      "폭발": 10747,
      "강한": 10748,
      "타임": 10749,
      "em": 10750,
      "발라": 10751,
      "메이크업": 10752,
      "##다시": 10753,
      "just": 10754,
      "med": 10755,
      "외출": 10756,
      "##사건": 10757,
      "사유": 10758,
      "공포": 10759,
      "유입": 10760,
      "일산": 10761,
      "89": 10762,
      "개방": 10763,
      "이혼": 10764,
      "육아": 10765,
      "붙이": 10766,
      "뚜껑": 10767,
      "규칙": 10768,
      "its": 10769,
      "Tr": 10770,
      "긴급": 10771,
      "강사": 10772,
      "다녀왔": 10773,
      "국방": 10774,
      "##지금": 10775,
      "거치": 10776,
      "변형": 10777,
      "상부": 10778,
      "쇼핑몰": 10779,
      "근로자": 10780,
      "##tern": 10781,
      "합성": 10782,
      "장식": 10783,
      "##구리": 10784,
      "##수원": 10785,
      "##EL": 10786,
      "CP": 10787,
      "##그레이드": 10788,
      "그럴": 10789,
      "##ID": 10790,
      "디스플레이": 10791,
      "코팅": 10792,
      "앨범": 10793,
      "노선": 10794,
      "고구마": 10795,
      "##에어": 10796,
      "대변": 10797,
      "초코": 10798,
      "거품": 10799,
      "##는다면": 10800,
      "##부장": 10801,
      "96": 10802,
      "##겁니다": 10803,
      "부상": 10804,
      "생겼": 10805,
      "194": 10806,
      "##프레": 10807,
      "140": 10808,
      "##끄러": 10809,
      "유닛": 10810,
      "##마저": 10811,
      "##미용": 10812,
      "##고추": 10813,
      "첨부": 10814,
      "휴가": 10815,
      "An": 10816,
      "데리": 10817,
      "가공": 10818,
      "##삼성": 10819,
      "지수": 10820,
      "오랫동안": 10821,
      "선언": 10822,
      "##보기": 10823,
      "걸어": 10824,
      "공통": 10825,
      "골목": 10826,
      "경상": 10827,
      "##대사": 10828,
      "이리": 10829,
      "버섯": 10830,
      "##ower": 10831,
      "them": 10832,
      "##신다면": 10833,
[...]
